<unk>	0
<s>	0
</s>	0
▁the	-3.15846
s	-3.31216
.	-3.37517
,	-3.3985
▁	-3.92223
▁of	-3.92321
▁to	-4.00527
▁and	-4.03066
▁a	-4.16335
▁in	-4.2146
ing	-4.32536
ed	-4.39055
▁is	-4.70801
▁be	-4.92537
ly	-4.92565
▁The	-4.9774
d	-5.04908
▁on	-5.1539
▁that	-5.16795
▁are	-5.2096
y	-5.23808
▁for	-5.2562
'	-5.29471
▁with	-5.35171
t	-5.36253
e	-5.38961
▁was	-5.39856
-	-5.41175
n	-5.54887
▁as	-5.56309
▁or	-5.57005
en	-5.58833
by	-5.62757
al	-5.66909
▁from	-5.69802
▁have	-5.79504
▁you	-5.81781
▁it	-5.83935
ir	-5.86869
▁at	-5.92728
er	-5.935
▁can	-5.97856
▁not	-6.00877
▁an	-6.01896
▁A	-6.02043
▁were	-6.0336
▁(	-6.04935
a	-6.12408
▁"	-6.14659
▁which	-6.17132
▁has	-6.17927
)	-6.21253
▁they	-6.23796
th	-6.25181
▁S	-6.35092
▁will	-6.35121
▁but	-6.37555
▁In	-6.40747
▁one	-6.41054
▁more	-6.44062
▁other	-6.45178
▁this	-6.4601
▁had	-6.49061
r	-6.49419
▁people	-6.51052
es	-6.51501
▁also	-6.53201
▁most	-6.53233
▁some	-6.55284
▁It	-6.6489
"	-6.66227
o	-6.67041
▁all	-6.68845
▁may	-6.6921
le	-6.72283
▁its	-6.72941
▁many	-6.73099
▁over	-6.74391
st	-6.75104
than	-6.76032
i	-6.7611
▁I	-6.7769
in	-6.78958
▁who	-6.79743
▁time	-6.80185
f	-6.80626
or	-6.80662
▁he	-6.8086
g	-6.81983
ve	-6.83032
▁your	-6.8431
▁about	-6.88373
▁so	-6.88931
▁his	-6.89793
▁up	-6.89932
▁un	-6.90922
▁there	-6.92077
an	-6.92185
▁first	-6.92902
▁like	-6.93112
▁into	-6.94987
▁said	-6.96106
▁often	-6.96143
▁This	-6.9616
▁two	-6.97753
▁call	-6.97759
▁do	-6.99577
p	-7.00096
if	-7.00357
ic	-7.00972
ce	-7.01404
▁after	-7.01596
ther	-7.0215
▁whe	-7.0323
re	-7.03428
▁used	-7.04009
▁would	-7.04582
ation	-7.05438
▁out	-7.05533
m	-7.06498
▁T	-7.08241
k	-7.08259
▁make	-7.08416
ers	-7.10277
▁go	-7.11401
ous	-7.118
▁new	-7.11941
▁no	-7.12325
se	-7.12651
u	-7.13578
▁country	-7.13947
▁get	-7.14552
ies	-7.15087
able	-7.15865
ion	-7.16312
▁water	-7.19915
▁work	-7.20022
l	-7.20548
▁re	-7.2106
ern	-7.21134
▁P	-7.21607
▁world	-7.21996
▁even	-7.22014
h	-7.22233
▁them	-7.23011
).	-7.2514
▁M	-7.25233
▁B	-7.26152
very	-7.26349
▁made	-7.2635
▁D	-7.26703
▁any	-7.28051
ur	-7.28484
▁back	-7.28609
▁different	-7.29919
▁E	-7.30904
▁He	-7.32304
▁through	-7.32996
▁such	-7.33082
▁where	-7.33171
c	-7.33172
▁b	-7.33575
▁place	-7.34181
ish	-7.35744
ity	-7.37578
:	-7.37815
▁should	-7.37858
▁well	-7.3797
▁t	-7.38035
▁just	-7.38046
▁de	-7.38057
cause	-7.3834
ted	-7.38591
▁bo	-7.38805
▁countries	-7.40374
us	-7.40736
▁H	-7.40775
on	-7.40985
▁C	-7.41072
▁being	-7.41101
▁show	-7.41605
▁high	-7.43019
▁us	-7.43309
▁way	-7.44648
ar	-7.45122
▁dur	-7.46598
est	-7.46908
twe	-7.48237
;	-7.48273
▁near	-7.48273
out	-7.48841
▁p	-7.48853
▁north	-7.51112
▁start	-7.51423
▁years	-7.51841
while	-7.523
▁base	-7.52824
▁year	-7.53601
▁end	-7.53686
▁around	-7.54117
▁car	-7.54514
ng	-7.54632
▁G	-7.54692
▁They	-7.55143
S	-7.55193
▁There	-7.55259
."	-7.56487
▁part	-7.56543
▁F	-7.59323
▁found	-7.59882
▁take	-7.60043
te	-7.60234
▁what	-7.60314
ment	-7.60953
ian	-7.6117
▁U	-7.61772
▁known	-7.63483
it	-7.6378
b	-7.64589
▁Wh	-7.6465
▁home	-7.66206
▁same	-7.6623
▁down	-7.66239
▁city	-7.66288
▁under	-7.66333
▁become	-7.66726
▁travel	-7.67254
▁need	-7.67535
▁small	-7.6929
▁again	-7.69564
▁see	-7.70942
id	-7.71051
▁these	-7.72006
▁Ma	-7.72208
▁use	-7.72416
▁large	-7.72708
▁However	-7.73012
▁South	-7.73012
▁great	-7.73012
▁million	-7.73014
▁still	-7.73025
▁help	-7.73084
▁For	-7.73692
though	-7.74613
▁include	-7.75566
▁we	-7.76338
▁before	-7.7659
▁find	-7.7662
▁O	-7.76991
lo	-7.7809
▁Uni	-7.78956
▁mean	-7.78993
1	-7.79888
el	-7.80069
▁due	-7.80266
/	-7.80287
▁culture	-7.80287
▁three	-7.80297
▁system	-7.80302
▁team	-7.80306
▁local	-7.80308
ch	-7.80531
▁c	-7.80801
▁Al	-7.80856
▁day	-7.81299
ent	-7.81912
ose	-7.81931
ary	-7.82341
▁number	-7.83954
▁Some	-7.84049
’	-7.84133
▁government	-7.84136
▁few	-7.84171
▁New	-7.84178
▁long	-7.84214
thing	-7.84221
▁common	-7.84258
▁name	-7.84258
▁along	-7.84415
▁reported	-7.84425
▁her	-7.84453
▁now	-7.84628
▁own	-7.84753
▁today	-7.84931
at	-7.85061
▁per	-7.85553
▁hand	-7.86076
w	-7.86264
▁As	-7.86284
▁remain	-7.88134
▁each	-7.88135
▁give	-7.88157
▁children	-7.8818
▁every	-7.88275
▁light	-7.88763
▁things	-7.88811
▁animals	-7.89001
▁includ	-7.8935
▁W	-7.89828
▁though	-7.89941
▁usual	-7.90339
▁areas	-7.91523
".	-7.9186
▁main	-7.92186
▁stay	-7.92301
▁look	-7.92305
▁particular	-7.92349
▁experience	-7.92349
▁general	-7.92492
▁good	-7.92805
▁On	-7.92962
ry	-7.94322
▁off	-7.9438
▁allow	-7.95535
▁move	-7.96507
▁major	-7.96648
▁food	-7.96652
▁Earth	-7.96661
▁much	-7.96661
▁last	-7.96717
▁then	-7.96869
▁States	-7.96909
▁wide	-7.96963
▁No	-7.96991
tion	-7.98258
▁g	-7.98947
▁Man	-7.99117
C	-7.99184
▁K	-7.99372
0	-8.00569
▁know	-8.00798
▁form	-8.00895
▁World	-8.01193
▁North	-8.0123
▁important	-8.01289
▁provide	-8.01307
▁th	-8.01337
▁century	-8.0134
▁km	-8.01433
▁state	-8.01538
2	-8.0198
ting	-8.02041
z	-8.02237
ok	-8.02734
▁R	-8.03551
v	-8.04373
▁visit	-8.04534
▁thousand	-8.05955
▁could	-8.05955
▁open	-8.05955
▁south	-8.05956
▁miles	-8.05974
▁since	-8.05999
▁try	-8.06101
▁night	-8.06111
▁how	-8.06123
ure	-8.06214
is	-8.06297
▁war	-8.06306
ated	-8.06526
to	-8.06585
▁Pa	-8.06673
▁wh	-8.08892
▁w	-8.09309
me	-8.09321
▁An	-8.10013
▁Africa	-8.10549
▁air	-8.1058
▁popular	-8.10962
▁season	-8.1102
▁European	-8.11031
▁second	-8.11036
ally	-8.11208
▁did	-8.11238
▁Mos	-8.12474
▁Re	-8.12969
▁mus	-8.13225
ily	-8.13373
▁cause	-8.1455
ia	-8.15114
▁2	-8.15181
um	-8.15571
▁con	-8.15581
▁four	-8.16029
as	-8.16082
ro	-8.16121
▁French	-8.16218
▁limit	-8.16218
▁process	-8.16218
▁organization	-8.16222
▁game	-8.16235
▁possible	-8.16241
▁Be	-8.16251
▁least	-8.16251
▁later	-8.16295
▁Nation	-8.16339
▁area	-8.16691
▁head	-8.17176
ions	-8.17386
▁old	-8.17469
▁st	-8.17507
▁group	-8.17774
▁region	-8.17785
▁language	-8.17957
3	-8.18634
▁Whi	-8.1909
▁close	-8.1929
ne	-8.19437
ul	-8.19636
▁best	-8.20006
▁N	-8.20042
til	-8.20504
▁far	-8.20557
ile	-8.21602
▁enough	-8.21773
▁similar	-8.21773
▁especially	-8.21775
▁might	-8.21776
▁began	-8.21778
▁order	-8.218
▁another	-8.22101
▁top	-8.22396
▁One	-8.22427
▁offer	-8.22589
▁run	-8.22775
▁less	-8.23141
▁site	-8.23783
▁po	-8.23986
▁man	-8.24302
▁men	-8.24657
the	-8.24708
▁At	-8.25458
▁1	-8.2571
▁times	-8.25771
▁support	-8.26128
▁100	-8.26732
uring	-8.27059
▁sever	-8.27179
▁10	-8.27524
▁snow	-8.27656
▁certain	-8.27656
▁Ho	-8.27668
▁population	-8.27726
▁book	-8.27757
▁police	-8.27798
▁across	-8.2781
▁phone	-8.27849
▁War	-8.27895
ab	-8.27929
▁ground	-8.27982
ite	-8.28004
▁say	-8.28105
fter	-8.28467
cient	-8.28801
▁right	-8.2884
▁cases	-8.29199
ial	-8.29407
▁eas	-8.29565
▁temple	-8.29601
▁result	-8.29847
▁ex	-8.30162
▁co	-8.30365
▁dis	-8.30498
5	-8.30978
▁islands	-8.31129
tic	-8.31632
,000	-8.32254
7	-8.33017
ness	-8.33355
land	-8.33405
▁l	-8.33669
▁require	-8.33676
▁control	-8.33904
▁available	-8.33906
▁attack	-8.33906
▁better	-8.33906
▁keep	-8.33906
▁course	-8.33907
▁period	-8.33908
▁built	-8.3391
▁company	-8.33911
▁With	-8.33932
▁expect	-8.33936
▁type	-8.33972
▁set	-8.34074
▁low	-8.34146
▁fall	-8.34261
▁away	-8.34529
▁bring	-8.34637
▁live	-8.34641
hose	-8.34909
▁students	-8.35044
▁learning	-8.35054
age	-8.35788
▁You	-8.35878
cal	-8.3641
▁15	-8.36515
▁Co	-8.37144
▁island	-8.3773
▁All	-8.37835
G	-8.37929
ive	-8.37962
▁pre	-8.38858
mi	-8.38965
▁understand	-8.39139
▁play	-8.39223
▁lead	-8.39965
▁present	-8.39981
▁German	-8.40018
▁person	-8.40217
ta	-8.40225
man	-8.40264
un	-8.40382
▁Europe	-8.4047
▁Japan	-8.40566
▁week	-8.4057
”	-8.40572
▁environment	-8.40572
▁John	-8.40573
▁protest	-8.40573
▁history	-8.40573
▁matter	-8.40574
▁example	-8.40574
▁past	-8.40579
▁short	-8.4058
▁strong	-8.40585
▁sometimes	-8.40587
▁Brit	-8.40588
▁Spanish	-8.40654
▁China	-8.40655
▁park	-8.40658
▁don	-8.40678
▁our	-8.40753
▁information	-8.40897
et	-8.40937
▁does	-8.41274
▁considered	-8.41376
▁We	-8.41569
tal	-8.41784
▁Lo	-8.42287
▁east	-8.42556
▁humans	-8.42614
and	-8.43023
ge	-8.4362
line	-8.43666
▁receiv	-8.43722
▁tourist	-8.43801
▁su	-8.4436
ance	-8.44549
▁places	-8.44633
8	-8.44856
li	-8.45059
▁3	-8.45402
▁16	-8.45468
M	-8.45555
ll	-8.46312
▁Sea	-8.46316
▁toward	-8.46482
▁normal	-8.46941
▁event	-8.47159
▁Australia	-8.47275
one	-8.47584
▁race	-8.47614
▁power	-8.47709
▁life	-8.47713
—	-8.47715
▁behavior	-8.47715
▁early	-8.47716
▁litt	-8.47716
▁energy	-8.47716
▁turn	-8.47717
▁river	-8.47721
▁fund	-8.4773
▁stand	-8.47737
▁lot	-8.47744
▁ice	-8.47766
▁announced	-8.47769
▁amount	-8.47802
▁knowledge	-8.47802
▁level	-8.47802
▁fire	-8.47805
il	-8.47919
▁qui	-8.47933
▁establish	-8.47951
▁hold	-8.47996
▁want	-8.47999
nt	-8.48008
▁west	-8.48133
▁mo	-8.48254
▁Germany	-8.48315
▁affected	-8.48636
▁came	-8.49253
ory	-8.49468
▁ra	-8.4948
de	-8.4973
▁problems	-8.49913
▁King	-8.49964
▁To	-8.50543
▁La	-8.50627
▁change	-8.50704
D	-8.51044
A	-8.51275
▁Olympic	-8.51351
▁official	-8.51411
red	-8.51476
▁events	-8.51644
▁ski	-8.51698
sion	-8.51877
ward	-8.51999
▁De	-8.52129
▁learn	-8.52233
▁class	-8.53091
ill	-8.53344
▁term	-8.53737
▁view	-8.53893
▁depend	-8.54117
▁cover	-8.54127
▁direct	-8.55012
▁range	-8.55068
▁flow	-8.55117
▁public	-8.55232
▁safe	-8.55387
–	-8.55408
▁Zealand	-8.55408
▁suggest	-8.55408
▁summer	-8.55408
▁traffic	-8.55408
▁threat	-8.55408
▁living	-8.55408
▁relative	-8.55408
▁women	-8.55409
▁speed	-8.55409
▁addition	-8.5541
▁him	-8.55413
▁regular	-8.55417
▁host	-8.55421
▁school	-8.5543
▁family	-8.55434
▁reach	-8.55449
▁image	-8.55473
▁activity	-8.55513
▁station	-8.55638
▁video	-8.55663
▁American	-8.55684
▁free	-8.55716
▁Indian	-8.55752
ince	-8.55904
▁design	-8.55928
all	-8.56058
▁20	-8.56061
▁put	-8.56201
▁town	-8.56365
▁land	-8.56497
▁sport	-8.57031
led	-8.57173
▁believe	-8.57823
▁centr	-8.58159
▁17	-8.583
▁points	-8.58435
sh	-8.58458
▁Se	-8.58581
N	-8.59274
ism	-8.59329
▁disease	-8.59456
ist	-8.59529
am	-8.59592
▁Th	-8.59595
▁trip	-8.59647
▁almo	-8.59652
▁month	-8.59775
▁gain	-8.59787
▁plant	-8.59918
▁6	-8.60049
▁easi	-8.60139
▁Roman	-8.60796
▁San	-8.60919
ver	-8.60924
P	-8.61447
▁come	-8.61474
per	-8.61635
R	-8.61712
la	-8.61722
son	-8.62108
fic	-8.62195
▁think	-8.623
▁18	-8.62553
▁goods	-8.62734
▁hav	-8.62832
▁damage	-8.63006
less	-8.63102
▁discover	-8.63203
▁Bo	-8.63482
ternational	-8.63557
cultural	-8.63741
▁Internet	-8.63741
▁University	-8.63741
▁accident	-8.63741
▁join	-8.63741
▁satellite	-8.63741
▁potential	-8.63741
▁weather	-8.63741
▁Atlant	-8.63742
▁together	-8.63743
▁focus	-8.63744
▁health	-8.63746
▁extra	-8.6375
▁specific	-8.63753
▁computer	-8.63756
▁percent	-8.6376
▁mark	-8.63803
▁ei	-8.63803
▁outside	-8.63807
▁ba	-8.63838
▁capital	-8.63843
▁death	-8.63845
▁feet	-8.63918
▁prob	-8.63922
▁But	-8.63946
▁locat	-8.64013
▁modern	-8.64021
▁original	-8.64046
▁test	-8.64052
▁national	-8.64083
▁largest	-8.64198
▁body	-8.6424
▁longer	-8.64353
▁African	-8.64433
▁smaller	-8.64453
ine	-8.64595
▁US	-8.64645
▁break	-8.64785
▁minutes	-8.64949
▁indicat	-8.65453
I	-8.65962
▁en	-8.66073
gen	-8.66283
▁words	-8.66342
old	-8.66616
▁nations	-8.67429
▁serve	-8.67704
▁Gree	-8.68246
ty	-8.68489
▁website	-8.68554
▁real	-8.687
▁nation	-8.68756
ments	-8.68859
▁full	-8.68992
rs	-8.69066
day	-8.69096
▁da	-8.692
▁law	-8.6924
T	-8.69992
j	-8.70707
came	-8.7082
▁enter	-8.71256
▁me	-8.71315
▁develop	-8.71393
▁sens	-8.71455
ec	-8.71463
▁f	-8.71471
ra	-8.71478
▁follow	-8.71505
▁return	-8.71682
▁Go	-8.71726
co	-8.7184
00	-8.72119
4	-8.72449
▁India	-8.72483
▁infect	-8.72542
▁match	-8.72756
▁effect	-8.72807
▁scienti	-8.72828
▁vehicle	-8.72832
▁however	-8.72832
▁approach	-8.72833
▁hospital	-8.72836
▁physical	-8.72836
▁money	-8.72838
▁winter	-8.72841
▁television	-8.72843
▁path	-8.72848
▁France	-8.72862
▁agent	-8.72862
▁sky	-8.72871
▁space	-8.72871
▁Minister	-8.72872
▁airline	-8.72881
▁act	-8.72886
▁transportation	-8.72914
br	-8.7294
▁complete	-8.72947
▁previous	-8.73
▁authorities	-8.73014
▁sent	-8.73038
▁coast	-8.73049
▁hard	-8.7306
ought	-8.73079
▁cost	-8.7308
▁rule	-8.73085
▁she	-8.73134
▁hot	-8.73136
always	-8.73202
▁force	-8.73322
▁bus	-8.73342
▁fear	-8.73514
▁fam	-8.73657
▁young	-8.7387
▁size	-8.74223
▁taken	-8.74347
▁boat	-8.74362
▁non	-8.7441
▁too	-8.74484
om	-8.74733
▁reports	-8.74988
ful	-8.75926
▁ships	-8.76064
▁24	-8.762
east	-8.76271
▁11	-8.76396
▁ten	-8.76477
▁meaning	-8.76553
ma	-8.76632
▁Pri	-8.76871
▁comes	-8.77332
ick	-8.77948
▁special	-8.77995
ext	-8.78091
ate	-8.78201
▁service	-8.78839
▁hit	-8.78895
ga	-8.78924
▁hour	-8.79012
os	-8.79075
▁point	-8.79314
itting	-8.79487
▁languages	-8.7965
ible	-8.79899
▁side	-8.8
▁member	-8.80042
▁n	-8.80204
ton	-8.80268
▁research	-8.80412
x	-8.8046
▁d	-8.80532
▁L	-8.80626
ember	-8.80728
B	-8.80803
▁art	-8.80854
▁Du	-8.80961
▁others	-8.81239
▁4	-8.81285
▁crash	-8.81331
ong	-8.81368
▁interest	-8.81462
▁mar	-8.81518
▁affect	-8.81662
que	-8.81826
▁J	-8.81858
▁traditional	-8.8213
right	-8.82691
▁200	-8.8271
▁transport	-8.82742
▁news	-8.82748
cientists	-8.82766
craft	-8.82832
▁August	-8.82832
▁biggest	-8.82832
▁difficult	-8.82832
▁sleep	-8.82832
▁species	-8.82832
▁Greenland	-8.82832
▁block	-8.82832
▁radio	-8.82832
▁clear	-8.82832
▁above	-8.82833
▁Italian	-8.82835
▁kill	-8.82835
▁scene	-8.82835
▁River	-8.82836
▁wild	-8.82836
▁regard	-8.82836
▁business	-8.82837
▁pay	-8.82837
▁cap	-8.82837
▁field	-8.82839
▁fight	-8.82841
▁among	-8.82841
▁Turkey	-8.82843
▁brain	-8.82851
▁safety	-8.82859
▁advance	-8.82866
▁cities	-8.82867
▁feel	-8.82879
▁significant	-8.82911
▁According	-8.82915
▁already	-8.8293
▁days	-8.82936
▁concern	-8.82945
▁option	-8.82953
▁bank	-8.82967
iddle	-8.83003
▁frequent	-8.83017
tiny	-8.83024
▁citizens	-8.83066
▁City	-8.8311
▁July	-8.83126
▁related	-8.83172
▁planning	-8.83204
▁beginn	-8.83225
▁Sun	-8.83239
▁traveller	-8.83529
▁arm	-8.83635
▁fu	-8.83749
▁finished	-8.84021
spit	-8.84051
▁8	-8.84307
▁required	-8.84307
▁conditions	-8.84309
nami	-8.84509
▁la	-8.84578
▁skiing	-8.84756
hu	-8.84802
▁caus	-8.84807
▁medic	-8.84816
▁here	-8.84843
ical	-8.84879
ck	-8.85053
▁ago	-8.85131
▁routes	-8.85159
▁Mo	-8.85517
▁cut	-8.85834
aw	-8.85872
▁visiting	-8.85923
▁Dr	-8.86435
▁Ba	-8.86614
▁consider	-8.87856
▁face	-8.87911
▁ga	-8.87984
ark	-8.88083
▁roll	-8.88525
▁9	-8.88861
min	-8.88905
ze	-8.89468
▁flight	-8.89831
▁Sa	-8.90812
▁Ro	-8.90917
ors	-8.91432
▁V	-8.91477
O	-8.91854
▁states	-8.91875
K	-8.91905
year	-8.91936
▁vari	-8.91993
▁pass	-8.924
▁ship	-8.92494
▁finish	-8.92643
▁mak	-8.92712
go	-8.92744
▁cross	-8.92894
▁-	-8.93093
▁Ra	-8.93216
▁fly	-8.93389
▁success	-8.93453
▁stop	-8.93476
ique	-8.93523
▁America	-8.93539
▁program	-8.9382
▁late	-8.93939
▁natural	-8.93943
▁bridge	-8.93943
▁centuries	-8.93943
▁couple	-8.93943
▁drink	-8.93943
▁economy	-8.93943
▁approximate	-8.93943
▁extend	-8.93943
▁patient	-8.93943
▁pull	-8.93944
rican	-8.93944
▁earthquake	-8.93945
▁improve	-8.93946
▁refer	-8.93946
▁surface	-8.93946
▁president	-8.93946
▁Metro	-8.93946
▁beyond	-8.93948
▁Russia	-8.93949
▁third	-8.93949
▁wildlife	-8.93953
▁basic	-8.93954
▁lost	-8.93962
▁oil	-8.93969
▁bomb	-8.93975
▁film	-8.93977
▁spoke	-8.93978
▁six	-8.93979
▁Italy	-8.93981
▁variet	-8.93986
▁dangerous	-8.93989
▁five	-8.94003
▁lenses	-8.94036
▁eat	-8.94064
▁development	-8.94077
▁launch	-8.94083
▁cannot	-8.94088
▁study	-8.94113
▁itself	-8.94142
▁yourself	-8.94156
▁driver	-8.94157
ol	-8.94158
▁mob	-8.94163
▁warm	-8.9417
▁fair	-8.94175
▁according	-8.94197
▁grow	-8.94202
▁steep	-8.94248
▁rough	-8.94333
▁surrounding	-8.94363
▁access	-8.94435
▁center	-8.94603
▁list	-8.94634
▁practice	-8.94671
▁atoms	-8.94755
▁rate	-8.94937
▁changed	-8.94994
▁died	-8.95037
▁round	-8.95072
▁leader	-8.95328
▁Hu	-8.95449
ture	-8.95595
▁inside	-8.95608
▁requirements	-8.9564
▁fact	-8.95676
▁covered	-8.96068
rban	-8.96412
▁rest	-8.96516
▁individuals	-8.96565
▁al	-8.96626
▁fed	-8.96865
▁observ	-8.9695
bal	-8.9696
▁hotels	-8.97048
▁post	-8.97405
zing	-8.97441
rk	-8.97474
▁5	-8.97615
▁o	-8.97853
▁date	-8.98032
ability	-8.9816
▁St	-8.98248
500	-8.9844
ba	-8.98468
▁gas	-8.98493
▁needed	-8.98699
▁formal	-8.98807
▁hel	-8.98867
▁Her	-8.9889
wa	-8.99215
▁share	-8.99312
▁br	-8.9961
uch	-8.999
▁rich	-9.00218
▁prior	-9.00445
▁tourists	-9.00511
ti	-9.0131
su	-9.0176
▁cave	-9.01936
own	-9.01947
▁simpl	-9.02019
▁friend	-9.02085
▁heav	-9.02179
▁visa	-9.02188
▁mountain	-9.02316
▁claim	-9.02351
▁document	-9.02494
▁leave	-9.02564
▁problem	-9.02618
▁human	-9.02668
▁19	-9.02759
▁building	-9.02887
tage	-9.02915
▁word	-9.02999
▁pro	-9.03814
ster	-9.03908
ana	-9.03992
▁r	-9.03992
ip	-9.04093
L	-9.04295
▁app	-9.044
ship	-9.0444
ral	-9.04446
▁par	-9.04548
▁legal	-9.04756
res	-9.04765
▁presen	-9.04977
light	-9.05004
▁meet	-9.05034
▁tax	-9.05439
▁camp	-9.05475
ize	-9.05735
▁current	-9.05766
▁Mar	-9.06183
▁treat	-9.06203
▁fast	-9.06272
▁office	-9.06279
▁foreign	-9.06363
▁positi	-9.064
▁kilomet	-9.06443
▁President	-9.06443
▁immediate	-9.06443
▁Brazil	-9.06443
▁Congress	-9.06443
▁English	-9.06443
▁Pakistan	-9.06443
▁Soviet	-9.06443
▁avoid	-9.06443
▁bottom	-9.06443
▁determine	-9.06443
▁enjoy	-9.06443
▁multi	-9.06443
▁obtain	-9.06443
▁themselves	-9.06443
▁cheap	-9.06443
▁religion	-9.06443
▁leaving	-9.06443
▁Ocean	-9.06443
▁source	-9.06444
▁evidence	-9.06444
▁moving	-9.06444
▁religious	-9.06444
▁Latin	-9.06444
▁network	-9.06444
▁extreme	-9.06445
▁vary	-9.06445
▁Iran	-9.06446
▁associate	-9.06446
▁club	-9.06447
▁failure	-9.0645
aught	-9.06451
▁adult	-9.06452
▁situation	-9.06457
▁earlier	-9.06457
▁military	-9.06459
▁Also	-9.0646
▁distance	-9.06463
▁ho	-9.06487
▁Sever	-9.06492
▁story	-9.06502
▁beaches	-9.06507
▁Super	-9.06509
▁March	-9.06512
▁sub	-9.0653
▁cold	-9.06545
▁beaut	-9.06555
▁child	-9.0658
▁Canada	-9.06583
▁statement	-9.06594
▁quickly	-9.06601
▁store	-9.06603
▁writing	-9.0661
▁Japanese	-9.06615
▁final	-9.06635
▁policy	-9.06636
▁king	-9.06645
▁arrived	-9.06684
ities	-9.06744
▁elements	-9.06746
▁won	-9.06749
▁Sep	-9.06762
▁throughout	-9.06781
itable	-9.06789
▁aspect	-9.068
▁copy	-9.06831
▁produce	-9.06848
▁Every	-9.06877
▁front	-9.06885
▁easier	-9.06902
▁larger	-9.07063
ld	-9.0708
▁connect	-9.07228
▁sun	-9.07262
▁former	-9.07269
▁tend	-9.07388
▁severe	-9.07518
▁involved	-9.07528
▁walking	-9.07689
▁reading	-9.07728
cy	-9.07886
▁my	-9.07966
nuclear	-9.0815
▁care	-9.08306
▁followed	-9.08334
▁passed	-9.08419
▁zone	-9.08467
▁developed	-9.085
▁stated	-9.0851
▁media	-9.08623
30	-9.0872
ha	-9.08858
▁fo	-9.09351
▁player	-9.09383
▁winds	-9.0944
▁birds	-9.09442
he	-9.09552
▁cells	-9.09626
▁Na	-9.09694
done	-9.09767
ned	-9.09913
ard	-9.0992
▁ask	-9.09934
▁house	-9.10336
▁documents	-9.10554
▁Sch	-9.10682
▁cars	-9.10877
▁seven	-9.10924
▁12	-9.10981
ham	-9.11021
▁So	-9.11064
▁glo	-9.11218
eral	-9.11225
▁simple	-9.11239
▁age	-9.11471
▁Bal	-9.11494
▁She	-9.11558
▁members	-9.11667
be	-9.11983
▁Jo	-9.12045
▁award	-9.12633
▁di	-9.12647
▁plants	-9.12825
▁East	-9.13029
▁reason	-9.13128
▁heat	-9.13512
▁format	-9.13868
ized	-9.14047
▁receive	-9.14051
▁bla	-9.14633
ac	-9.15561
▁Cas	-9.15659
▁compar	-9.15718
▁mi	-9.15999
bas	-9.16011
▁offers	-9.16204
come	-9.16283
▁Park	-9.16436
▁election	-9.16494
▁storm	-9.16505
tation	-9.16639
▁cent	-9.16705
▁standard	-9.16717
bo	-9.16754
▁road	-9.16786
▁hotel	-9.16881
▁sho	-9.16947
▁market	-9.17079
ber	-9.17128
▁Fe	-9.17145
wo	-9.1723
▁Poli	-9.17382
ya	-9.17448
▁trans	-9.17675
▁7	-9.17853
▁Ja	-9.179
▁separate	-9.17986
▁case	-9.18052
V	-9.18346
board	-9.18571
▁read	-9.18704
▁surviv	-9.1874
The	-9.18767
▁25	-9.18955
▁fa	-9.18979
like	-9.19004
▁becom	-9.19195
▁happen	-9.19304
▁walk	-9.19313
▁str	-9.19472
▁gra	-9.19553
ble	-9.19613
▁goal	-9.19635
▁Vi	-9.19826
ike	-9.20066
▁sh	-9.2012
▁ever	-9.20201
mon	-9.20291
▁education	-9.20338
za	-9.2046
ology	-9.20548
▁agree	-9.20555
▁tak	-9.2057
▁bill	-9.20591
ca	-9.20613
spread	-9.20683
▁civil	-9.20708
▁never	-9.20722
▁October	-9.20729
▁Queen	-9.20729
▁Wednesday	-9.20729
▁chemical	-9.20729
▁complex	-9.20729
▁destroy	-9.20729
▁driving	-9.20729
▁economic	-9.20729
▁families	-9.20729
▁job	-9.20729
▁republic	-9.20729
▁People	-9.20729
▁purpose	-9.20729
▁morning	-9.20729
▁Britain	-9.20729
▁picture	-9.20729
▁sentence	-9.20729
▁arrest	-9.2073
▁court	-9.2073
▁Valley	-9.2073
▁letter	-9.2073
▁skills	-9.2073
▁material	-9.20731
▁etc	-9.20732
▁hiking	-9.20733
visible	-9.20735
▁perform	-9.20735
▁secur	-9.20737
▁dead	-9.20738
▁resident	-9.20738
▁risk	-9.20738
▁Airline	-9.20741
▁private	-9.20742
▁buy	-9.20743
▁device	-9.20743
ach	-9.20746
▁future	-9.20749
▁tourism	-9.2075
▁detail	-9.20754
▁First	-9.20754
▁yet	-9.20756
▁check	-9.20765
▁iron	-9.20767
▁negative	-9.20771
▁warning	-9.20774
▁fold	-9.20779
▁slow	-9.20779
▁sound	-9.20785
▁emergenc	-9.20785
▁edge	-9.20791
▁Kong	-9.20806
▁That	-9.20809
▁slight	-9.20819
▁big	-9.20842
▁scientists	-9.2085
▁stage	-9.20898
▁virus	-9.20913
▁virtual	-9.20915
▁estimate	-9.20915
▁General	-9.20916
▁attend	-9.20918
▁serious	-9.20932
▁His	-9.20949
▁political	-9.20953
▁independent	-9.21068
uary	-9.21072
▁Union	-9.21074
▁maintain	-9.21102
▁moon	-9.21111
hap	-9.21123
▁Other	-9.21143
▁fur	-9.2115
dom	-9.21152
▁studie	-9.21173
▁fill	-9.21184
▁Plan	-9.21193
▁room	-9.21237
▁style	-9.21239
▁print	-9.21249
▁injured	-9.2125
▁hill	-9.21257
▁rise	-9.21287
▁Jan	-9.21319
9	-9.2135
▁lower	-9.21407
▁added	-9.21459
▁stable	-9.21462
▁band	-9.21484
▁wear	-9.21505
nese	-9.21534
▁combined	-9.21537
▁yard	-9.21566
comfortable	-9.21617
▁lack	-9.2166
▁tickets	-9.21686
▁troops	-9.21692
▁bi	-9.21863
▁recorded	-9.21897
▁40	-9.21906
▁aware	-9.21919
▁created	-9.21986
▁trade	-9.21998
▁ch	-9.22282
▁borders	-9.22311
▁weigh	-9.22366
▁whole	-9.22369
▁camping	-9.22406
▁Mr	-9.22415
▁crossing	-9.22631
ified	-9.22663
umb	-9.22664
▁cats	-9.22857
▁interesting	-9.22858
▁seen	-9.2299
▁pen	-9.23139
▁196	-9.23393
▁needs	-9.23395
▁features	-9.23401
▁love	-9.23641
▁sure	-9.23681
▁presented	-9.23856
off	-9.23861
▁understanding	-9.23998
▁Islands	-9.24232
▁researcher	-9.2437
▁saying	-9.24382
sure	-9.24498
ition	-9.24667
▁roads	-9.24886
▁Cr	-9.25075
mm	-9.25128
bu	-9.25161
▁houses	-9.25299
▁buildings	-9.25535
▁m	-9.25562
▁formed	-9.25598
▁sw	-9.25747
nut	-9.26222
▁services	-9.26861
▁hours	-9.26865
ants	-9.26939
▁tour	-9.27098
▁traveling	-9.27576
▁forces	-9.27627
ff	-9.27646
▁shop	-9.27654
lar	-9.27831
runn	-9.27968
▁cell	-9.28141
active	-9.28403
▁officials	-9.28885
▁changes	-9.28944
▁sole	-9.29112
▁Chi	-9.2928
▁ways	-9.29591
▁achieve	-9.29648
ree	-9.2965
▁score	-9.29853
ually	-9.29855
▁nati	-9.29872
way	-9.30218
wer	-9.3047
▁report	-9.30607
amp	-9.3082
▁cur	-9.30923
▁tri	-9.31269
▁Ta	-9.31495
▁inter	-9.31656
▁sites	-9.31714
side	-9.31991
ori	-9.32005
▁indi	-9.32045
ade	-9.32357
▁groups	-9.32359
istic	-9.32361
▁issue	-9.32577
▁charge	-9.32735
▁idea	-9.32957
ple	-9.33001
▁destination	-9.3315
▁dinosaur	-9.3315
▁method	-9.33277
▁ru	-9.33339
▁pyramid	-9.33373
▁Island	-9.33423
▁bird	-9.33473
▁individual	-9.3348
▁animal	-9.33627
▁provid	-9.33679
▁route	-9.33755
tain	-9.33855
up	-9.33867
▁comp	-9.33895
▁wind	-9.34099
▁35	-9.34129
▁Un	-9.3413
went	-9.3423
▁pain	-9.34231
▁Asia	-9.34337
▁record	-9.34439
4,	-9.34766
50	-9.34847
ov	-9.35288
F	-9.35335
break	-9.35346
head	-9.35357
what	-9.35379
▁watch	-9.35802
▁appear	-9.35997
ant	-9.36137
can	-9.36265
▁Ar	-9.36661
sm	-9.36998
▁drive	-9.37079
of	-9.37112
ey	-9.37248
▁plane	-9.37291
ystem	-9.37323
▁distinct	-9.37373
▁California	-9.37395
▁Iraq	-9.37395
▁Republic	-9.37395
▁Revolution	-9.37395
▁Singapore	-9.37395
▁Taiwan	-9.37395
▁Tuesday	-9.37395
▁agriculture	-9.37395
▁airport	-9.37395
▁campaign	-9.37395
▁collect	-9.37395
▁elsewhere	-9.37395
▁independence	-9.37395
▁influence	-9.37395
▁migrat	-9.37395
▁reflect	-9.37395
▁science	-9.37395
▁square	-9.37395
▁stereotype	-9.37395
▁telescope	-9.37395
▁Berlin	-9.37395
▁passport	-9.37395
▁suffer	-9.37395
▁Monday	-9.37396
▁audience	-9.37396
▁blood	-9.37396
▁industry	-9.37396
▁left	-9.37396
▁Iceland	-9.37396
▁internet	-9.37396
Charles	-9.37396
▁blog	-9.37396
▁drug	-9.37396
▁nomination	-9.37396
▁temporar	-9.37396
▁content	-9.37396
▁apparent	-9.37396
▁rebuil	-9.37396
▁technology	-9.37397
▁peak	-9.37397
▁initial	-9.37398
▁Haiti	-9.37399
▁flood	-9.37399
▁molecul	-9.374
▁foot	-9.37401
▁search	-9.37402
▁half	-9.37402
▁suspect	-9.37402
kind	-9.37405
▁2010	-9.37406
▁communication	-9.37407
▁governor	-9.37408
▁throw	-9.37408
▁skate	-9.37408
▁bulb	-9.3741
▁cruise	-9.37411
▁fifth	-9.37418
▁send	-9.3742
▁shock	-9.37423
▁performance	-9.37423
▁mix	-9.37426
▁peace	-9.37429
▁management	-9.3743
▁shape	-9.3743
▁production	-9.37434
▁injuries	-9.37435
▁facilities	-9.37435
▁flu	-9.37444
▁Rock	-9.37445
▁eye	-9.37446
George	-9.37447
▁Paris	-9.37456
▁lakes	-9.37458
▁leak	-9.37459
▁exist	-9.37459
▁deep	-9.3746
▁bound	-9.37461
▁visitors	-9.37469
▁recent	-9.37477
ium	-9.37491
▁Over	-9.37496
▁imp	-9.37502
▁illegal	-9.37512
▁Moon	-9.37512
▁construction	-9.37513
▁scheduled	-9.37535
▁Chile	-9.37554
heck	-9.37556
▁primary	-9.37557
▁photography	-9.37559
▁Sweden	-9.37583
▁gold	-9.37601
ut	-9.37615
▁contact	-9.37619
▁prevent	-9.37619
▁Center	-9.37633
▁financ	-9.37638
▁taxes	-9.37642
▁carry	-9.37643
▁compani	-9.37678
▁attraction	-9.37696
▁photographer	-9.3771
pped	-9.37719
▁Last	-9.37752
▁rider	-9.37772
▁cards	-9.37779
▁Lake	-9.37786
▁trial	-9.37805
▁feathers	-9.37814
▁customs	-9.37819
▁tank	-9.37828
▁seek	-9.3788
▁seem	-9.37883
▁sur	-9.37993
▁involve	-9.37993
▁length	-9.38004
▁expensive	-9.38004
▁crowd	-9.38076
▁Grand	-9.381
fused	-9.38118
▁issued	-9.38152
▁operation	-9.38218
▁confirmed	-9.38247
▁movement	-9.38304
fr	-9.38383
▁ban	-9.38409
▁sign	-9.38436
town	-9.38459
▁Tour	-9.38484
self	-9.38485
▁aged	-9.38645
▁training	-9.38648
▁communit	-9.3867
▁bow	-9.38709
ological	-9.38857
▁Con	-9.38898
im	-9.39
▁Cha	-9.39011
▁online	-9.39026
member	-9.39084
▁hu	-9.39167
▁prey	-9.39191
▁Lu	-9.39223
▁Fi	-9.39242
▁differences	-9.39292
▁festivals	-9.39293
▁text	-9.39324
▁val	-9.39358
▁normally	-9.39368
▁meeting	-9.39406
▁199	-9.39458
▁Dav	-9.39792
▁mm	-9.39983
cent	-9.40032
▁sc	-9.40036
ola	-9.40036
▁tombs	-9.40048
▁21	-9.40063
▁music	-9.40095
▁board	-9.40114
▁save	-9.40204
▁deal	-9.40216
▁returning	-9.40221
▁Po	-9.40406
hief	-9.40427
▁press	-9.40433
▁Cu	-9.40552
▁stars	-9.4059
ail	-9.40675
▁Le	-9.40867
▁trains	-9.40878
tress	-9.40902
▁rain	-9.40922
▁closed	-9.41001
▁sea	-9.41074
▁uses	-9.41148
iza	-9.41153
ood	-9.4121
ines	-9.41248
▁signs	-9.41249
unci	-9.41362
▁pyramids	-9.41604
ult	-9.41776
uck	-9.41857
served	-9.42181
▁continue	-9.42211
▁By	-9.42363
▁goals	-9.42379
▁standards	-9.42389
take	-9.42442
aki	-9.42493
ongo	-9.42549
▁195	-9.4295
▁allowed	-9.43166
▁leaves	-9.43176
▁com	-9.43188
live	-9.43336
ky	-9.43393
▁win	-9.43431
iv	-9.43527
▁line	-9.43531
▁pl	-9.43658
▁(1	-9.43771
ib	-9.43856
ino	-9.43994
▁h	-9.44851
ender	-9.452
▁mon	-9.45274
abl	-9.45349
56	-9.45386
▁laws	-9.45602
▁investigat	-9.45626
▁sides	-9.4578
val	-9.46398
▁months	-9.46423
dri	-9.46616
ace	-9.46687
▁Runn	-9.47066
▁mu	-9.47072
wards	-9.47162
hal	-9.47233
▁Gre	-9.47234
▁Olympics	-9.47258
lia	-9.47481
▁shows	-9.47662
oyal	-9.4768
▁cop	-9.47801
▁Bi	-9.48129
▁soft	-9.48219
awa	-9.48293
▁Br	-9.48436
cture	-9.48515
▁res	-9.48712
ake	-9.48898
▁UN	-9.49171
▁neighbor	-9.4944
ories	-9.49691
ency	-9.49694
▁results	-9.49788
64	-9.49821
▁II	-9.49974
ot	-9.50739
▁regions	-9.51539
▁mind	-9.51627
▁vote	-9.51824
▁train	-9.52087
▁Ni	-9.52202
▁Ru	-9.52431
ating	-9.52587
▁curr	-9.52635
anta	-9.5266
▁phase	-9.52929
▁ocean	-9.53195
▁tree	-9.53259
ift	-9.53388
ning	-9.53469
▁location	-9.53525
▁student	-9.53609
▁via	-9.53644
▁Ca	-9.5369
▁wheel	-9.53718
H	-9.53743
▁map	-9.53753
nity	-9.53806
▁se	-9.54161
ound	-9.54191
po	-9.54252
put	-9.54318
ride	-9.54424
ak	-9.54456
▁nucle	-9.54621
form	-9.54634
uty	-9.54797
work	-9.55404
▁contain	-9.55675
etic	-9.5569
We	-9.55732
ware	-9.55883
lf	-9.55904
▁accept	-9.55981
not	-9.55993
tra	-9.56333
▁Cent	-9.56356
ise	-9.56362
text	-9.56385
omo	-9.56458
ju	-9.56506
▁magn	-9.56687
▁actual	-9.56744
▁Sunda	-9.56952
▁react	-9.56973
▁tradition	-9.57003
oke	-9.5711
▁create	-9.57121
▁wor	-9.57125
▁adapt	-9.57141
▁Canad	-9.57163
▁attract	-9.57203
cept	-9.57256
▁function	-9.5726
▁cru	-9.57279
▁lens	-9.57282
▁Pre	-9.57308
▁differ	-9.57353
ime	-9.5737
▁colon	-9.57372
▁Turk	-9.57385
▁Even	-9.57394
▁immigra	-9.57395
▁Sikh	-9.57395
▁802.11	-9.57395
▁Afghanistan	-9.57395
▁BCE	-9.57395
▁Catalan	-9.57395
▁Disney	-9.57395
▁Ecuador	-9.57395
▁Galapagos	-9.57395
▁Kanjar	-9.57395
▁Mediterranean	-9.57395
▁Moldova	-9.57395
▁Texas	-9.57395
▁commercial	-9.57395
▁exploded	-9.57395
▁galaxy	-9.57395
▁liquid	-9.57395
▁province	-9.57395
▁remote	-9.57395
▁resources	-9.57395
▁response	-9.57395
▁stretch	-9.57395
▁victim	-9.57395
▁volume	-9.57395
kept	-9.57395
▁Louis	-9.57395
▁Office	-9.57395
▁Sanskrit	-9.57395
▁behind	-9.57395
▁dream	-9.57395
▁experiment	-9.57395
▁otherwise	-9.57395
▁represent	-9.57395
▁rescue	-9.57395
▁somewhere	-9.57395
▁techniques	-9.57395
▁expressed	-9.57396
▁judge	-9.57396
▁maxim	-9.57396
▁poison	-9.57396
▁saddle	-9.57396
▁terrain	-9.57396
▁critical	-9.57396
▁entire	-9.57396
▁insects	-9.57396
▁decorat	-9.57396
▁Armenia	-9.57396
▁Navy	-9.57396
▁excess	-9.57396
▁rugby	-9.57396
▁carbon	-9.57396
▁address	-9.57396
▁twenty	-9.57396
▁items	-9.57396
▁Court	-9.57397
▁clean	-9.57397
cific	-9.57397
▁define	-9.57397
▁export	-9.57397
▁yesterday	-9.57397
▁relations	-9.57397
▁balance	-9.57397
▁boots	-9.57398
▁advice	-9.57399
▁shooting	-9.574
▁civilization	-9.574
▁consum	-9.574
▁Falls	-9.57401
▁accus	-9.57401
lpha	-9.57403
vention	-9.57403
▁label	-9.57403
▁deliver	-9.57403
▁entrance	-9.57403
▁plateau	-9.57403
▁abuse	-9.57403
ecuti	-9.57404
▁swimming	-9.57406
▁swim	-9.57407
▁occurred	-9.57407
▁describe	-9.57408
▁hope	-9.57409
▁declar	-9.57414
▁decision	-9.57414
▁medal	-9.57415
▁2020	-9.57415
▁organism	-9.57419
▁sustain	-9.57421
▁carriage	-9.57421
▁identifi	-9.57422
▁Star	-9.57423
▁effective	-9.57423
▁legislation	-9.57424
▁respect	-9.57425
▁nav	-9.57425
▁distinctive	-9.57426
▁Kingdom	-9.57429
▁Arab	-9.5743
▁speakers	-9.57432
▁wait	-9.57432
▁Ages	-9.57433
▁Poland	-9.57434
▁university	-9.57434
▁plum	-9.57434
▁Egyptian	-9.57435
▁Goma	-9.57436
▁convention	-9.57438
▁2009	-9.57441
▁2008	-9.57445
▁tension	-9.57453
▁urg	-9.57453
▁church	-9.57456
▁trouble	-9.57458
▁generation	-9.57458
▁800	-9.57462
▁sight	-9.57463
▁USA	-9.57471
▁alone	-9.57471
round	-9.57475
▁Travell	-9.5748
▁profession	-9.57483
▁danger	-9.57485
▁investigation	-9.57492
▁carri	-9.57498
▁thick	-9.57498
bour	-9.57503
▁grant	-9.57509
anca	-9.57513
▁assist	-9.57523
▁true	-9.57571
▁absolute	-9.57573
▁society	-9.57607
▁manager	-9.5761
▁sand	-9.57651
▁instruction	-9.57664
▁Swi	-9.57664
▁degree	-9.57673
▁push	-9.57673
▁motor	-9.57675
▁violen	-9.57678
▁celebrate	-9.5768
▁chair	-9.57681
▁assess	-9.57696
▁web	-9.57718
ospital	-9.57727
▁recognize	-9.5773
▁heart	-9.57771
▁flee	-9.57822
▁International	-9.57864
▁failed	-9.57873
▁necessary	-9.57875
▁participate	-9.57876
▁recover	-9.57939
▁vi	-9.57979
▁planet	-9.58042
▁Form	-9.58062
▁pit	-9.58102
▁below	-9.5811
▁Christian	-9.58112
▁athletes	-9.58136
▁West	-9.58136
▁Of	-9.58141
▁written	-9.58143
▁qualit	-9.58152
▁paper	-9.58153
▁Up	-9.58158
ania	-9.58203
▁Today	-9.58207
Bush	-9.58271
NA	-9.58326
unda	-9.58419
▁soon	-9.58433
▁Cla	-9.58517
▁insur	-9.58575
▁travell	-9.58683
▁male	-9.58693
▁currently	-9.58753
▁Cap	-9.58766
▁walls	-9.58821
▁pounds	-9.58823
▁Games	-9.58823
▁efforts	-9.58824
creation	-9.58845
▁officers	-9.58858
▁worth	-9.58866
▁notice	-9.58873
▁cho	-9.58899
iff	-9.58921
▁cancell	-9.58982
mates	-9.59009
▁believ	-9.59085
▁bad	-9.59239
ped	-9.59312
▁Jer	-9.59488
▁60	-9.59551
▁survived	-9.5968
ider	-9.59697
▁objects	-9.59762
▁temperatures	-9.59762
▁permits	-9.59785
ina	-9.5994
▁Part	-9.6007
▁photos	-9.60148
▁thought	-9.60356
ations	-9.60388
long	-9.6039
ou	-9.60507
usa	-9.60554
▁key	-9.60637
▁star	-9.60668
▁active	-9.60692
▁windows	-9.60717
▁consists	-9.60719
▁positions	-9.60726
▁sections	-9.60728
▁Ph	-9.60754
▁Va	-9.6083
▁begins	-9.61043
ule	-9.61057
▁technologi	-9.61244
▁door	-9.61263
▁May	-9.61265
▁thinking	-9.61267
▁importan	-9.61395
▁tool	-9.615
▁landing	-9.61613
▁locations	-9.6177
sex	-9.61858
▁sn	-9.61933
tro	-9.62012
▁Par	-9.62116
US	-9.62168
▁feature	-9.62354
▁reasonabl	-9.62422
▁cor	-9.62569
chu	-9.62615
iant	-9.62622
▁methods	-9.62663
▁charges	-9.62704
▁issues	-9.62706
ons	-9.629
ex	-9.63321
▁clos	-9.63331
▁fare	-9.63721
▁spa	-9.63741
▁ill	-9.63773
▁du	-9.63961
ki	-9.64003
over	-9.64228
▁mountains	-9.64656
60	-9.64775
nce	-9.64865
ux	-9.65305
adic	-9.65338
▁differently	-9.65591
▁flights	-9.6567
▁34	-9.6589
ests	-9.66065
▁god	-9.66176
▁artist	-9.6645
▁ar	-9.66503
mb	-9.66678
endo	-9.67021
rade	-9.67111
ook	-9.67796
▁36	-9.67845
▁70	-9.68113
las	-9.68157
ix	-9.68278
▁hous	-9.68305
truck	-9.68495
▁trips	-9.68787
men	-9.68862
▁cha	-9.69119
▁Ha	-9.69305
▁release	-9.69393
low	-9.69648
▁Easter	-9.69702
20	-9.69787
▁Bu	-9.69967
av	-9.70224
ven	-9.70265
shi	-9.70549
▁user	-9.70849
▁fit	-9.71074
gar	-9.71193
ock	-9.71518
Pl	-9.7211
rch	-9.72144
mor	-9.72311
▁fee	-9.72373
ight	-9.72558
rew	-9.72581
lem	-9.72585
mile	-9.72935
▁isolat	-9.73015
rop	-9.73075
▁structure	-9.73263
signed	-9.73311
▁willing	-9.7345
▁1,	-9.73505
▁ma	-9.73508
lic	-9.73694
use	-9.73745
▁Yo	-9.7413
▁ri	-9.74784
pper	-9.74859
▁Ari	-9.74931
▁runs	-9.74991
nder	-9.7512
pping	-9.75267
▁Ch	-9.75328
ious	-9.75362
▁creat	-9.75541
▁Pro	-9.76083
▁am	-9.76166
pe	-9.76734
▁shar	-9.76786
▁red	-9.76848
▁ac	-9.77064
mat	-9.77146
▁begin	-9.77247
▁vo	-9.77552
▁stu	-9.77649
▁thing	-9.77703
ists	-9.77866
▁question	-9.77947
▁display	-9.77951
▁Black	-9.78007
▁comment	-9.78028
▁met	-9.78124
▁variation	-9.78178
▁battle	-9.78219
▁consist	-9.78245
▁sav	-9.78245
▁window	-9.7829
▁clock	-9.78301
▁section	-9.78327
ctor	-9.78527
▁super	-9.78687
▁requirement	-9.78729
▁condition	-9.78869
▁position	-9.78896
▁minute	-9.78899
▁Ju	-9.78971
chne	-9.79109
lini	-9.79154
ko	-9.79156
bet	-9.79225
▁historic	-9.79269
W	-9.79803
▁advis	-9.7984
ue	-9.79954
speaking	-9.80013
time	-9.80133
bit	-9.80334
▁sel	-9.8039
▁14	-9.80427
case	-9.80464
9.	-9.80479
back	-9.80508
ball	-9.8057
win	-9.80604
▁encourage	-9.8068
▁social	-9.80715
▁tomb	-9.80762
whe	-9.80838
▁ball	-9.80854
▁hunt	-9.80932
ap	-9.80942
9,	-9.81059
▁works	-9.81062
nother	-9.81095
▁cook	-9.81135
llow	-9.8129
bout	-9.81386
▁fish	-9.81526
▁leg	-9.81539
▁inva	-9.81646
▁agenc	-9.81796
her	-9.81816
ink	-9.81844
hough	-9.81876
▁rare	-9.81949
▁weak	-9.81984
It	-9.8207
▁opt	-9.82109
▁fell	-9.82137
cil	-9.8215
▁manage	-9.82201
▁possib	-9.82214
▁Travel	-9.82287
▁Shar	-9.8229
▁adv	-9.82322
chool	-9.8234
istence	-9.82364
▁zo	-9.82377
riginal	-9.82379
▁pet	-9.8238
▁add	-9.82384
▁earth	-9.82391
▁character	-9.82395
▁Virgin	-9.82395
▁guide	-9.82395
ubculture	-9.82395
▁2017	-9.82395
▁Amazon	-9.82395
▁Association	-9.82395
▁Buffalo	-9.82395
▁Catholic	-9.82395
▁Children	-9.82395
▁Committee	-9.82395
▁Independence	-9.82395
▁Islam	-9.82395
▁Israel	-9.82395
▁Moriori	-9.82395
▁Peninsula	-9.82395
▁Portuguese	-9.82395
▁Science	-9.82395
▁Tutankhamun	-9.82395
▁Washington	-9.82395
▁Year	-9.82395
▁abandon	-9.82395
▁abroad	-9.82395
▁attempt	-9.82395
▁bhajan	-9.82395
▁castle	-9.82395
▁concentration	-9.82395
▁crucial	-9.82395
▁cuisine	-9.82395
▁decades	-9.82395
▁depression	-9.82395
▁envelope	-9.82395
▁equipment	-9.82395
▁evolution	-9.82395
▁exchange	-9.82395
▁expans	-9.82395
▁female	-9.82395
▁grammar	-9.82395
▁juice	-9.82395
▁laptop	-9.82395
▁marriage	-9.82395
▁movie	-9.82395
▁murder	-9.82395
▁obvious	-9.82395
▁opposite	-9.82395
▁procedures	-9.82395
▁project	-9.82395
▁prompt	-9.82395
▁regulation	-9.82395
▁target	-9.82395
▁territory	-9.82395
▁tube	-9.82395
▁vast	-9.82395
▁victory	-9.82395
▁Alonso	-9.82395
▁Auckland	-9.82395
▁Gingrich	-9.82395
▁Harbour	-9.82395
▁Research	-9.82395
▁Virtual	-9.82395
▁anywhere	-9.82395
▁component	-9.82395
▁favor	-9.82395
▁funeral	-9.82395
▁routine	-9.82395
▁tiger	-9.82395
▁weapon	-9.82395
▁Animal	-9.82396
▁Conservati	-9.82396
▁Street	-9.82396
▁alleged	-9.82396
▁blind	-9.82396
▁defeat	-9.82396
▁exact	-9.82396
▁micro	-9.82396
▁nature	-9.82396
▁outdoor	-9.82396
▁ratio	-9.82396
▁village	-9.82396
▁volunteer	-9.82396
▁perceive	-9.82396
▁digest	-9.82396
▁dollar	-9.82396
▁Women	-9.82396
▁pastries	-9.82396
▁attitude	-9.82396
▁conservati	-9.82396
▁Argentin	-9.82396
▁cri	-9.82397
▁impact	-9.82397
▁introduced	-9.82397
▁protect	-9.82397
▁epi	-9.82397
▁sample	-9.82397
▁Saint	-9.82397
▁breath	-9.82397
▁crisis	-9.82397
▁invented	-9.82397
▁draft	-9.82397
stead	-9.82397
▁choice	-9.82397
xem	-9.82398
▁demand	-9.82398
▁spend	-9.82398
▁remove	-9.82398
▁inspire	-9.82398
▁announcement	-9.82398
▁Francisco	-9.82398
rella	-9.82399
▁fashion	-9.82399
▁Angel	-9.82399
▁sister	-9.824
▁Java	-9.824
▁checkpoint	-9.824
▁Norway	-9.82401
▁Follow	-9.82401
▁Kenya	-9.82401
▁2016	-9.82401
▁color	-9.82401
▁graffiti	-9.82402
▁Gui	-9.82402
▁coffee	-9.82403
▁eight	-9.82404
▁fence	-9.82404
▁instance	-9.82405
▁identity	-9.82405
▁eva	-9.82406
▁Army	-9.82406
▁phenomenon	-9.82407
▁talk	-9.82407
▁tournament	-9.82408
▁breakfast	-9.82408
▁minor	-9.82409
▁pack	-9.8241
▁1970	-9.82412
▁else	-9.82412
▁cancer	-9.82412
▁wonder	-9.82413
▁Tibetan	-9.82414
▁answer	-9.82414
arliament	-9.82414
▁Yoga	-9.82414
▁High	-9.82414
▁tropic	-9.82416
▁inches	-9.82416
▁Apple	-9.82418
▁volcano	-9.82418
▁predict	-9.82419
voice	-9.82419
▁tribe	-9.82419
▁royal	-9.82421
▁peaceful	-9.82423
▁honor	-9.82424
▁reconstructi	-9.82426
▁middle	-9.8243
▁roots	-9.82431
▁buri	-9.82433
▁claw	-9.82437
Luna	-9.82437
▁solve	-9.82439
▁stories	-9.82444
▁accommodation	-9.82445
▁consistent	-9.82445
happa	-9.82446
▁Venus	-9.82447
▁medicine	-9.82448
▁wood	-9.82451
▁cat	-9.82453
▁overnight	-9.82455
▁Stone	-9.82458
earning	-9.82459
▁fig	-9.82459
▁80	-9.82462
▁acid	-9.82463
▁insight	-9.82463
▁arrival	-9.82464
▁replace	-9.82467
▁2007	-9.8247
▁civilis	-9.82471
▁2005	-9.82471
▁dogs	-9.82472
▁credi	-9.82473
▁Belgian	-9.82477
▁parents	-9.82478
▁thirt	-9.82484
Net	-9.82489
▁flag	-9.8249
▁hostage	-9.82491
▁90	-9.82492
▁continu	-9.825
turb	-9.825
▁Old	-9.82503
ymnastics	-9.8251
guard	-9.82515
▁commissioner	-9.82526
▁num	-9.82528
▁data	-9.82539
▁Spa	-9.82543
▁stone	-9.82545
oters	-9.82565
▁gun	-9.82567
ray	-9.82569
▁rank	-9.82588
▁crust	-9.82595
▁tilt	-9.82595
▁pool	-9.82605
▁Stan	-9.82605
▁attention	-9.82614
▁Book	-9.82618
▁atmosphere	-9.82621
▁reality	-9.82621
▁property	-9.82637
▁raise	-9.8265
▁Thus	-9.82655
▁symptom	-9.82666
▁nerve	-9.82668
▁singer	-9.82675
▁Reid	-9.82678
▁alliance	-9.82681
▁alcohol	-9.82684
▁desired	-9.82716
▁cry	-9.82721
▁Hall	-9.82722
hood	-9.82725
▁agreement	-9.82745
rrel	-9.8275
▁verifi	-9.82755
▁essential	-9.82756
▁camera	-9.82761
▁sort	-9.82761
▁familiar	-9.82761
▁measure	-9.82761
▁continent	-9.82761
▁ethnic	-9.82761
▁protein	-9.82761
▁James	-9.82764
▁November	-9.8277
▁Ross	-9.82773
hne	-9.82774
▁born	-9.82775
▁wealth	-9.82776
▁concept	-9.82788
▁dozen	-9.82797
▁Pole	-9.82802
▁twel	-9.82809
▁prime	-9.82817
▁prefe	-9.82851
▁varies	-9.82859
▁teach	-9.82861
▁nine	-9.82867
▁Picc	-9.82883
ield	-9.82899
ogen	-9.82913
▁sold	-9.82915
▁matches	-9.82958
▁Me	-9.82972
▁float	-9.82975
just	-9.82976
▁billion	-9.82991
▁agency	-9.83011
▁published	-9.83018
▁someone	-9.83034
rison	-9.83035
▁connection	-9.83038
▁reduce	-9.83044
▁clothing	-9.8306
▁gone	-9.83069
▁faster	-9.83079
▁applications	-9.83083
▁relationships	-9.83083
ago	-9.83094
▁Christ	-9.83107
ier	-9.83113
▁submarines	-9.83119
▁educational	-9.83126
▁winn	-9.83139
▁hurt	-9.83151
▁nothing	-9.83156
mail	-9.83157
▁thin	-9.83173
▁cable	-9.83191
▁urin	-9.83221
▁rarely	-9.8323
hike	-9.83309
▁infection	-9.83315
osa	-9.83338
cation	-9.83371
▁solution	-9.83395
aries	-9.83396
▁2,2	-9.83398
▁district	-9.83401
▁intend	-9.83403
▁generate	-9.83406
▁link	-9.83421
lake	-9.83436
▁tra	-9.83522
▁ready	-9.83549
▁charged	-9.83603
▁invad	-9.83609
▁internal	-9.83638
get	-9.83644
▁upon	-9.83698
▁successful	-9.83713
▁Stra	-9.83721
▁numbers	-9.83729
40	-9.83749
▁Do	-9.83753
▁Or	-9.83766
▁hearing	-9.83814
▁hunting	-9.83932
▁fourth	-9.83932
creen	-9.83969
▁personal	-9.84083
▁meters	-9.84153
▁Australian	-9.84158
▁400	-9.84171
▁pest	-9.84224
▁rein	-9.84255
gged	-9.8426
▁raci	-9.84279
▁restaurants	-9.84283
▁tea	-9.84284
▁hid	-9.84403
▁discovery	-9.84416
▁Kir	-9.84449
▁accepted	-9.84543
▁inform	-9.84555
cus	-9.84585
83	-9.84608
▁appeared	-9.84664
cream	-9.8476
▁damaged	-9.84834
▁let	-9.84914
ament	-9.84956
300	-9.84967
▁Tri	-9.8498
▁har	-9.84985
▁reporting	-9.84988
▁title	-9.8508
▁happened	-9.85083
my	-9.85086
▁gene	-9.85098
▁scar	-9.85245
▁nor	-9.85262
▁bars	-9.85386
▁Dan	-9.85415
45	-9.8544
atives	-9.85462
▁Io	-9.85483
▁metals	-9.85527
▁actions	-9.85631
eological	-9.8564
parent	-9.85657
wal	-9.85775
drop	-9.85862
▁30	-9.85885
▁reli	-9.85926
▁varied	-9.85945
ways	-9.85987
del	-9.86172
gue	-9.86331
tures	-9.86339
erous	-9.86614
mble	-9.86671
▁waves	-9.86672
▁battles	-9.86775
▁bear	-9.86829
▁legaliz	-9.87033
▁compos	-9.8707
▁structures	-9.87122
ron	-9.87255
▁income	-9.87436
▁fine	-9.87516
▁Car	-9.87773
▁provider	-9.87774
py	-9.88057
dam	-9.8807
▁wheels	-9.88102
▁trees	-9.88107
top	-9.88291
anks	-9.88316
▁paint	-9.88377
▁party	-9.88474
ator	-9.88474
▁compet	-9.88486
eep	-9.88945
▁Su	-9.88993
col	-9.89084
▁ven	-9.89101
wage	-9.89104
▁expos	-9.89241
ians	-9.89263
chus	-9.89317
▁Ten	-9.89376
zz	-9.89398
▁destinations	-9.89424
▁dinosaurs	-9.89424
▁offered	-9.89687
known	-9.89758
▁supporting	-9.89884
▁hear	-9.89981
▁pai	-9.90706
▁storms	-9.90764
▁elections	-9.9078
▁skier	-9.91027
▁fil	-9.91032
▁formats	-9.91033
▁reasons	-9.91069
▁defen	-9.9115
dia	-9.91157
▁notes	-9.91424
▁Monte	-9.9149
deer	-9.91551
atic	-9.91667
dict	-9.91815
▁wave	-9.91863
▁visas	-9.92129
▁union	-9.92203
ify	-9.92223
rmal	-9.92321
▁heavi	-9.92357
its	-9.92523
▁reg	-9.92926
rap	-9.92941
▁photo	-9.92983
▁compare	-9.9302
ater	-9.93086
lies	-9.93161
▁pursue	-9.93182
pro	-9.93419
▁fe	-9.93437
polo	-9.93554
ille	-9.93598
▁Fo	-9.94143
NE	-9.94245
rd	-9.94311
opi	-9.94327
▁increase	-9.94393
▁Mari	-9.94628
nivers	-9.94635
▁vot	-9.94779
ras	-9.94817
▁Pu	-9.95072
▁operat	-9.95232
ami	-9.9538
onto	-9.95529
plit	-9.95581
▁scor	-9.95692
con	-9.95833
▁Gian	-9.95923
▁relie	-9.96348
▁websites	-9.96356
most	-9.96473
▁Tom	-9.96529
rt	-9.96573
fully	-9.96649
rom	-9.96815
vision	-9.97105
▁Dar	-9.97266
aid	-9.97466
ord	-9.97551
ris	-9.97581
▁diseases	-9.97815
▁Jud	-9.97998
▁Air	-9.97999
▁Fer	-9.98352
▁terms	-9.98776
E	-9.99227
▁wi	-9.99301
van	-9.99405
cks	-9.99506
6	-9.99516
▁investigate	-9.99689
▁spl	-10.0025
▁fr	-10.0028
▁fac	-10.0042
▁unit	-10.0051
ost	-10.0072
▁bin	-10.0073
▁Ham	-10.01
▁Ed	-10.0107
▁ab	-10.0118
▁aid	-10.0126
olo	-10.0127
cted	-10.0179
.5	-10.0186
udge	-10.0194
hi	-10.0209
▁argue	-10.0209
bl	-10.0211
nate	-10.0217
▁How	-10.0268
▁Sho	-10.0273
formation	-10.0296
▁medi	-10.03
▁Ou	-10.0352
▁temples	-10.0392
▁unknow	-10.0399
uk	-10.0403
▁says	-10.0428
▁Act	-10.0458
ctors	-10.0496
fall	-10.0526
etting	-10.0534
ezu	-10.0561
▁50	-10.0564
▁evening	-10.0571
ilip	-10.0594
▁192	-10.0623
engen	-10.0636
eet	-10.064
ours	-10.0647
10	-10.068
▁rid	-10.0684
do	-10.0731
▁proper	-10.0788
▁Fl	-10.082
▁fla	-10.0831
▁Any	-10.0903
▁terr	-10.0925
au	-10.0934
▁Han	-10.099
▁sp	-10.0999
▁Reg	-10.1028
ese	-10.1064
▁combin	-10.1105
ai	-10.1111
▁horse	-10.1131
▁Mak	-10.1133
body	-10.1138
▁trail	-10.1138
nom	-10.114
▁price	-10.1141
▁value	-10.1144
part	-10.1156
▁requir	-10.116
▁temperature	-10.1164
▁object	-10.1164
▁permit	-10.1164
▁involv	-10.1167
▁Ko	-10.1178
▁festival	-10.118
▁archipelago	-10.1182
nness	-10.1182
▁track	-10.1184
med	-10.1185
lack	-10.1192
▁action	-10.1196
▁ratif	-10.12
lv	-10.1202
run	-10.1221
▁difference	-10.1223
▁border	-10.1228
▁metal	-10.1238
▁sli	-10.124
lease	-10.1264
▁step	-10.1298
ading	-10.1302
press	-10.1325
▁cancel	-10.1328
worth	-10.1354
▁rang	-10.1355
400	-10.136
market	-10.136
▁Il	-10.1361
rctic	-10.1361
place	-10.1364
dden	-10.1366
class	-10.1368
photon	-10.1369
bow	-10.1369
inter	-10.1371
country	-10.1373
income	-10.1382
face	-10.139
ground	-10.1392
18	-10.1393
▁trad	-10.1393
▁practic	-10.1394
19	-10.1394
There	-10.14
▁bag	-10.1402
▁Ve	-10.1403
▁organ	-10.1405
▁ha	-10.1405
hold	-10.1406
made	-10.1407
▁climb	-10.1415
also	-10.1422
▁lea	-10.1422
▁wa	-10.1423
tract	-10.1423
▁em	-10.1426
▁cl	-10.1432
eam	-10.1433
ternal	-10.1433
▁surround	-10.1435
▁confirm	-10.1438
state	-10.1438
▁rat	-10.1453
▁(3	-10.1457
ja	-10.1468
▁polic	-10.1474
▁correct	-10.1478
▁injur	-10.1483
▁careful	-10.1483
ception	-10.1484
▁48	-10.1484
pock	-10.1494
▁decide	-10.1509
▁stud	-10.1509
▁invade	-10.1515
refore	-10.1517
▁challeng	-10.1519
▁pri	-10.1522
but	-10.1524
▁Scot	-10.1527
Z	-10.1532
▁Swed	-10.1535
aster	-10.1535
▁select	-10.1536
▁contra	-10.1537
▁depart	-10.1544
▁Indus	-10.1549
yard	-10.1549
efore	-10.1555
▁requ	-10.1559
logical	-10.1559
ibility	-10.156
CO	-10.1561
▁Belgi	-10.1562
▁opportunit	-10.1563
burg	-10.1564
ornadoes	-10.1564
▁facilit	-10.1565
▁product	-10.1565
urvey	-10.1565
▁electric	-10.1565
▁Sub	-10.1565
▁univers	-10.1566
▁diver	-10.1567
opular	-10.1568
▁habit	-10.1568
▁Trans	-10.1569
ody	-10.157
ildlife	-10.157
hog	-10.1572
▁geo	-10.1572
specially	-10.1572
▁suppo	-10.1572
logist	-10.1572
quake	-10.1572
▁engine	-10.1573
ography	-10.1573
▁Barcelona	-10.1573
▁Martelly	-10.1573
▁Provenzano	-10.1573
▁journ	-10.1573
Simpson	-10.1573
lacier	-10.1573
operative	-10.1573
quarter	-10.1573
riceratops	-10.1573
▁Afghan	-10.1573
▁Alexander	-10.1573
▁April	-10.1573
▁Arizona	-10.1573
▁Assyrian	-10.1573
▁Austria	-10.1573
▁Beijing	-10.1573
▁Bishkek	-10.1573
▁Cambodia	-10.1573
▁Canyon	-10.1573
▁Championship	-10.1573
▁Charlotte	-10.1573
▁Civilization	-10.1573
▁College	-10.1573
▁Copenhagen	-10.1573
▁Costello	-10.1573
▁Danielle	-10.1573
▁Director	-10.1573
▁Ethiopia	-10.1573
▁FBI	-10.1573
▁Falkland	-10.1573
▁Florida	-10.1573
▁Harappa	-10.1573
▁Hemisphere	-10.1573
▁Organis	-10.1573
▁Paraguay	-10.1573
▁Pharaoh	-10.1573
▁Philippine	-10.1573
▁Radio	-10.1573
▁Report	-10.1573
▁Scaffold	-10.1573
▁Siminoff	-10.1573
▁Slalom	-10.1573
▁Templ	-10.1573
▁Vancouver	-10.1573
▁Whitehall	-10.1573
▁anticipate	-10.1573
▁automatic	-10.1573
▁behaviour	-10.1573
▁benefit	-10.1573
▁blossom	-10.1573
▁cavalry	-10.1573
▁censorship	-10.1573
▁champion	-10.1573
▁chariot	-10.1573
▁conquerors	-10.1573
▁corruption	-10.1573
▁declined	-10.1573
▁determinism	-10.1573
▁dinner	-10.1573
▁distinguish	-10.1573
▁dynasty	-10.1573
▁efficient	-10.1573
▁emphasi	-10.1573
▁encounter	-10.1573
▁enforce	-10.1573
▁exempt	-10.1573
▁explosi	-10.1573
▁holiday	-10.1573
▁innovative	-10.1573
▁institution	-10.1573
▁landmarks	-10.1573
▁landscape	-10.1573
▁luggage	-10.1573
▁luxur	-10.1573
▁mammals	-10.1573
▁manufacture	-10.1573
▁married	-10.1573
▁mathematic	-10.1573
▁motivation	-10.1573
▁neglect	-10.1573
▁oppose	-10.1573
▁peninsula	-10.1573
▁perspective	-10.1573
▁predecessors	-10.1573
▁preparation	-10.1573
▁privilege	-10.1573
▁pronounce	-10.1573
▁reinforc	-10.1573
▁reservation	-10.1573
▁responsib	-10.1573
▁responsibility	-10.1573
▁rodent	-10.1573
▁safari	-10.1573
▁savanna	-10.1573
▁sparsely	-10.1573
▁spectrum	-10.1573
▁spokesperson	-10.1573
▁squeeze	-10.1573
▁subject	-10.1573
▁succeed	-10.1573
▁supplies	-10.1573
▁surpris	-10.1573
▁theoretical	-10.1573
▁Morocc	-10.1573
▁Mystic	-10.1573
▁disciplin	-10.1573
▁eleven	-10.1573
▁escap	-10.1573
▁intelligen	-10.1573
▁lucid	-10.1573
▁railway	-10.1573
▁subsequent	-10.1573
▁ultimate	-10.1573
dimension	-10.1573
▁2011	-10.1573
▁AOL	-10.1573
▁MRI	-10.1573
▁Petersburg	-10.1573
▁Romney	-10.1573
▁Ya	-10.1573
▁counted	-10.1573
▁denied	-10.1573
▁fauna	-10.1573
▁lawsuit	-10.1573
▁narrow	-10.1573
▁relax	-10.1573
▁resonance	-10.1573
▁shuttle	-10.1573
▁smell	-10.1573
▁straight	-10.1573
▁substance	-10.1573
▁yacht	-10.1573
▁Article	-10.1573
▁England	-10.1573
▁Second	-10.1573
▁Utah	-10.1573
▁accompan	-10.1573
▁belief	-10.1573
▁milk	-10.1573
▁spices	-10.1573
▁spiritual	-10.1573
▁status	-10.1573
▁tariff	-10.1573
▁Antarctica	-10.1573
▁Capital	-10.1573
▁Fernand	-10.1573
▁Harv	-10.1573
▁Service	-10.1573
▁definit	-10.1573
▁mph	-10.1573
▁northwest	-10.1573
▁phage	-10.1573
▁speculate	-10.1573
▁bottle	-10.1573
▁pattern	-10.1573
▁plasma	-10.1573
▁respectively	-10.1573
▁soldiers	-10.1573
▁transmit	-10.1573
▁gesture	-10.1573
▁Garden	-10.1573
▁Finland	-10.1573
▁dynami	-10.1573
▁garden	-10.1573
▁geography	-10.1573
▁superior	-10.1573
▁recall	-10.1573
▁GPS	-10.1573
▁Zha	-10.1573
▁beverage	-10.1573
▁expense	-10.1573
tribute	-10.1573
▁giving	-10.1573
▁Peter	-10.1573
▁jail	-10.1573
▁strict	-10.1573
▁derive	-10.1573
▁firm	-10.1573
▁levee	-10.1573
▁roof	-10.1573
▁valley	-10.1573
▁impair	-10.1573
▁kids	-10.1573
▁thinner	-10.1573
▁Carolina	-10.1573
▁delay	-10.1573
▁Carter	-10.1573
▁appearances	-10.1573
▁Perry	-10.1573
▁protons	-10.1573
▁empire	-10.1573
▁germ	-10.1573
UTC	-10.1573
▁rotation	-10.1573
▁literature	-10.1573
▁impuls	-10.1573
▁Libera	-10.1573
rrow	-10.1573
▁ruling	-10.1573
▁Typical	-10.1573
▁guru	-10.1573
▁attach	-10.1573
▁series	-10.1573
▁vici	-10.1573
▁Robert	-10.1573
▁discuss	-10.1573
▁hydr	-10.1573
▁Lig	-10.1573
▁fossil	-10.1573
▁authority	-10.1573
▁London	-10.1573
▁Massa	-10.1573
mine	-10.1573
▁consciousness	-10.1574
▁neutrons	-10.1574
▁undis	-10.1574
▁conduct	-10.1574
▁rect	-10.1574
▁controller	-10.1574
▁restriction	-10.1574
▁trauma	-10.1574
▁dramatically	-10.1574
▁colli	-10.1574
▁basis	-10.1574
▁museum	-10.1574
tari	-10.1574
▁Canal	-10.1574
▁justice	-10.1574
▁telephone	-10.1574
▁detect	-10.1574
▁Student	-10.1574
▁ruins	-10.1574
▁inhabitants	-10.1574
▁Wild	-10.1574
bugs	-10.1574
▁activities	-10.1574
▁complaints	-10.1574
▁birth	-10.1574
▁Way	-10.1574
▁Fair	-10.1574
▁Hungar	-10.1574
▁Through	-10.1574
▁football	-10.1574
▁riot	-10.1574
▁Highway	-10.1574
amanian	-10.1574
terior	-10.1575
▁Elizabeth	-10.1575
▁socket	-10.1575
▁treasure	-10.1575
engage	-10.1575
▁boomerang	-10.1575
▁clouds	-10.1575
▁compound	-10.1575
▁tide	-10.1575
▁neuro	-10.1575
▁review	-10.1575
▁silver	-10.1575
▁ceremonies	-10.1575
▁warfare	-10.1575
icide	-10.1575
▁debate	-10.1575
evertheless	-10.1575
▁assume	-10.1575
▁Hsie	-10.1575
▁pad	-10.1575
▁poll	-10.1575
▁spill	-10.1575
▁sanctuary	-10.1575
▁woman	-10.1576
▁massive	-10.1576
▁mutation	-10.1576
▁typical	-10.1576
▁1940	-10.1576
▁Histor	-10.1576
▁apartment	-10.1576
▁memor	-10.1577
▁package	-10.1577
▁medium	-10.1577
roup	-10.1577
▁Seven	-10.1577
▁26	-10.1577
▁sugar	-10.1577
▁Famil	-10.1577
▁draw	-10.1577
▁1979	-10.1577
▁Thai	-10.1577
▁Final	-10.1578
▁Cuba	-10.1578
▁diplomatic	-10.1578
▁lawyer	-10.1578
▁arrangement	-10.1578
▁colonial	-10.1578
▁obe	-10.1578
▁adoption	-10.1578
▁bacteria	-10.1579
▁charm	-10.1579
▁occasion	-10.1579
▁capture	-10.1579
▁1995	-10.1579
▁meals	-10.1579
▁channel	-10.158
▁wound	-10.158
eclar	-10.158
▁trigger	-10.158
▁eco	-10.158
▁Prix	-10.158
▁toilet	-10.158
▁2004	-10.158
▁propose	-10.158
▁hur	-10.1581
▁crew	-10.1581
radar	-10.1581
▁hangi	-10.1581
▁factors	-10.1581
ersonal	-10.1581
▁equi	-10.1583
▁Four	-10.1583
▁expert	-10.1583
▁powerful	-10.1583
torm	-10.1584
▁organic	-10.1584
▁53	-10.1584
▁conclude	-10.1584
▁mosquitoes	-10.1585
▁roar	-10.1585
▁Versa	-10.1585
▁writer	-10.1585
▁absent	-10.1585
km	-10.1586
▁Khan	-10.1586
▁pH	-10.1586
anda	-10.1587
▁conta	-10.1587
▁Lions	-10.1587
▁necessity	-10.1587
▁sale	-10.1587
▁settlement	-10.1588
▁coco	-10.1588
▁primate	-10.1588
▁recommendation	-10.1588
▁hostile	-10.1589
▁Western	-10.1589
▁purchased	-10.159
▁prosecution	-10.159
▁dra	-10.159
▁Persia	-10.1591
▁Show	-10.1591
▁sail	-10.1591
▁reside	-10.1591
▁Singer	-10.1592
▁implie	-10.1592
▁everyday	-10.1592
▁28	-10.1592
▁march	-10.1592
▁Drive	-10.1593
▁meat	-10.1594
:30	-10.1594
rogen	-10.1595
taff	-10.1597
ssibility	-10.1597
▁fung	-10.1597
▁Stark	-10.1597
▁white	-10.1597
▁Feli	-10.1597
▁hostel	-10.1597
▁mass	-10.1597
▁Down	-10.1599
▁plann	-10.16
uated	-10.16
▁lun	-10.16
▁Romanian	-10.1601
▁Korean	-10.1601
▁broken	-10.1601
▁customer	-10.1601
▁restore	-10.1602
OV	-10.1603
▁foreigners	-10.1606
▁excellent	-10.1606
▁mission	-10.1607
▁promise	-10.1608
▁constant	-10.1608
tag	-10.1608
▁enemy	-10.1612
zards	-10.1612
▁mention	-10.1612
▁MP	-10.1613
▁translation	-10.1613
▁occupie	-10.1614
▁More	-10.1614
▁page	-10.1615
▁domina	-10.1617
avian	-10.1617
▁Ell	-10.1617
▁gap	-10.1617
▁seeds	-10.1617
▁PA	-10.1618
▁Sky	-10.1618
▁adaptation	-10.1618
reak	-10.1619
cia	-10.1619
▁geologic	-10.162
▁pace	-10.162
pine	-10.162
▁vaccine	-10.1622
calc	-10.1625
▁inhabit	-10.1625
▁Hawaii	-10.1626
▁piece	-10.1626
▁principle	-10.1626
▁stimulate	-10.1626
▁enlightenment	-10.1626
▁witness	-10.1626
recipi	-10.1627
▁green	-10.1627
▁challenge	-10.1627
▁Arch	-10.1629
▁divid	-10.163
▁Post	-10.1633
▁nin	-10.1635
▁committee	-10.1635
▁widespread	-10.1637
▁orbit	-10.1638
▁canyon	-10.1641
-19	-10.1641
▁polluti	-10.1641
▁reputa	-10.1642
quer	-10.1642
▁sharp	-10.1642
▁selection	-10.1644
▁treatment	-10.1645
▁functional	-10.1647
30,000	-10.1647
meters	-10.1647
▁Just	-10.1648
▁Kar	-10.1651
▁portion	-10.1651
▁reactor	-10.1651
▁Medic	-10.1653
▁shore	-10.1655
▁thus	-10.1656
▁bare	-10.1656
rove	-10.1657
▁signal	-10.1659
▁nest	-10.166
▁publication	-10.1662
umber	-10.1663
elling	-10.1665
▁era	-10.1666
▁Try	-10.1667
▁Care	-10.1668
▁Day	-10.167
▁dens	-10.1672
▁translat	-10.1672
▁classes	-10.1673
▁particles	-10.1673
▁electrons	-10.1673
▁passengers	-10.1675
lves	-10.1677
▁Gran	-10.1681
▁decided	-10.1684
▁inspect	-10.1686
▁Mus	-10.1689
oft	-10.1693
▁deity	-10.1694
▁kn	-10.1694
▁Sunday	-10.1695
▁Rich	-10.1696
▁Ng	-10.1697
elan	-10.1701
▁seat	-10.1701
▁rent	-10.1702
▁wel	-10.1704
ometimes	-10.1705
▁Del	-10.1708
▁1,000	-10.171
▁lava	-10.171
▁forests	-10.1712
▁heel	-10.1714
igat	-10.1714
▁cycling	-10.1718
▁Born	-10.1719
▁accurate	-10.172
olen	-10.1724
rong	-10.1727
▁Estonia	-10.1732
▁advan	-10.1733
▁climbing	-10.1734
▁actually	-10.1734
▁cab	-10.1736
▁table	-10.1738
▁reign	-10.1739
▁winner	-10.1741
oxi	-10.1743
▁needle	-10.1745
▁TV	-10.1746
jor	-10.1756
▁Nint	-10.1767
▁Don	-10.1769
▁baby	-10.177
▁direction	-10.1771
iquet	-10.1772
erland	-10.1772
▁matur	-10.1772
▁Ven	-10.1775
peech	-10.1778
racy	-10.178
list	-10.1782
▁beach	-10.1784
▁cooked	-10.1784
reme	-10.1789
▁fishing	-10.1797
▁steal	-10.1798
une	-10.1799
▁increas	-10.1799
iking	-10.1799
ange	-10.1804
▁separately	-10.1805
▁mid	-10.1807
tention	-10.1814
▁skin	-10.1815
tained	-10.1817
▁taxi	-10.1822
phal	-10.1822
marine	-10.183
▁dry	-10.1832
▁(16	-10.1837
▁(2	-10.1842
▁coal	-10.1844
▁ran	-10.1844
omer	-10.1844
▁fis	-10.185
▁holes	-10.185
▁Mountains	-10.185
▁competitors	-10.185
▁emissions	-10.185
▁streets	-10.185
▁guests	-10.185
▁climates	-10.185
▁antiques	-10.1854
▁realize	-10.1862
▁arra	-10.1866
▁voters	-10.1866
alm	-10.1867
▁expe	-10.1872
▁Fil	-10.1876
gic	-10.1879
feral	-10.1889
▁none	-10.1891
▁plans	-10.1892
▁God	-10.1901
ties	-10.1902
▁combine	-10.1903
▁rocks	-10.1905
▁code	-10.1909
▁loss	-10.1909
mela	-10.1913
▁traditionally	-10.1916
▁Bar	-10.1916
▁watching	-10.193
▁recording	-10.1934
kha	-10.1947
flies	-10.1952
▁(14	-10.1968
▁travelers	-10.197
ony	-10.198
ntine	-10.1982
gle	-10.1982
rge	-10.1992
▁speaking	-10.2015
▁miss	-10.2017
▁values	-10.2035
▁archipelagos	-10.2035
▁prices	-10.2035
▁trails	-10.2036
▁horses	-10.2036
▁tracks	-10.2036
nu	-10.2049
▁nom	-10.2054
tz	-10.2056
▁tr	-10.2056
dry	-10.2067
▁hum	-10.2076
▁Corp	-10.2079
ejon	-10.2083
ected	-10.2084
▁steps	-10.2085
ford	-10.2099
▁Buddhis	-10.2104
ndi	-10.2106
▁Hy	-10.2112
usual	-10.2113
ski	-10.2129
▁sil	-10.2137
umans	-10.2141
ef	-10.2155
▁crashed	-10.2157
akes	-10.2199
▁Ka	-10.2209
▁Fort	-10.2219
▁balls	-10.2222
▁wet	-10.2224
▁clocks	-10.2226
▁Blacks	-10.2226
▁displays	-10.2226
▁questions	-10.2226
▁bears	-10.2227
▁variations	-10.2229
▁comments	-10.2231
tail	-10.2233
ular	-10.2261
▁entering	-10.2267
▁bit	-10.2278
▁Ac	-10.2287
▁outer	-10.2306
▁sensor	-10.2306
▁sit	-10.2314
▁shouldn	-10.2352
▁compa	-10.2358
▁wo	-10.2359
erv	-10.239
sides	-10.2397
▁viewing	-10.2407
▁mis	-10.2421
▁Er	-10.2422
▁oceans	-10.2422
▁phases	-10.2423
▁cycl	-10.2465
▁mal	-10.2466
▁198	-10.2518
▁activ	-10.2539
▁admi	-10.2567
▁Ton	-10.2568
▁mine	-10.2617
inos	-10.2619
▁ideas	-10.2623
ID	-10.2626
▁Saf	-10.2627
script	-10.2638
▁Art	-10.2677
▁minds	-10.2699
hua	-10.2722
▁pleas	-10.2794
iled	-10.2807
▁markets	-10.2831
▁toll	-10.2838
nyone	-10.2841
▁Parks	-10.2893
icy	-10.2895
▁flo	-10.2907
guil	-10.2907
▁Lad	-10.2933
▁29	-10.2958
vert	-10.2976
law	-10.2998
ative	-10.3006
▁friends	-10.304
▁claims	-10.3043
▁caves	-10.3043
▁Hang	-10.3068
exi	-10.3073
▁Sola	-10.3103
car	-10.3111
▁Dru	-10.3136
▁argu	-10.3151
lation	-10.3168
Gh	-10.32
▁interacti	-10.3229
uro	-10.323
▁Now	-10.3232
▁initiat	-10.3342
▁fl	-10.3364
ode	-10.337
▁isolate	-10.3376
▁employ	-10.3399
▁considerabl	-10.3431
rupt	-10.3448
hoo	-10.3471
▁Fr	-10.3473
had	-10.3538
▁Ann	-10.3601
▁Cin	-10.3619
lade	-10.365
▁Wi	-10.3696
▁preci	-10.3698
▁releas	-10.3726
▁Ri	-10.3758
thood	-10.377
comm	-10.383
bel	-10.389
▁milita	-10.394
▁Hal	-10.3943
▁tie	-10.3988
▁handl	-10.402
uma	-10.4025
▁188	-10.4051
cell	-10.4059
▁Jar	-10.4124
cur	-10.4158
▁gr	-10.4168
▁Ver	-10.4182
▁wav	-10.4216
▁observe	-10.4224
▁operate	-10.4227
91	-10.4292
▁500	-10.4301
▁rem	-10.4313
▁featur	-10.4322
vid	-10.4347
▁precis	-10.4431
▁candid	-10.4437
atter	-10.4464
risto	-10.4486
bility	-10.4508
Vic	-10.459
▁specialise	-10.461
ization	-10.4737
62	-10.4738
▁plan	-10.4789
▁specialis	-10.4797
▁Rom	-10.4814
▁fi	-10.4817
reign	-10.4822
▁Casa	-10.4854
regime	-10.4855
ado	-10.4877
▁ni	-10.4912
▁Edi	-10.4913
▁Gi	-10.4937
69	-10.5064
cycle	-10.509
▁metr	-10.5099
nning	-10.5148
▁Jon	-10.5194
▁177	-10.5228
▁Nor	-10.523
▁Mont	-10.528
ventually	-10.528
▁indicate	-10.5321
▁183	-10.5349
▁Inc	-10.5353
▁160	-10.5371
▁compete	-10.5392
▁shoulder	-10.5456
diment	-10.5462
avi	-10.5464
▁chi	-10.5542
▁scr	-10.5573
loca	-10.5584
▁herb	-10.5626
apply	-10.564
MS	-10.5672
oo	-10.5737
arian	-10.578
tive	-10.5821
▁Pra	-10.583
▁monk	-10.5901
▁Geo	-10.5929
▁logic	-10.5938
▁bre	-10.5975
▁150	-10.5981
facts	-10.5981
39	-10.5991
aka	-10.601
spect	-10.6022
mag	-10.6054
connected	-10.6062
▁box	-10.6083
7,000	-10.6086
tuck	-10.6106
▁communi	-10.6131
▁competitor	-10.6136
▁emission	-10.6136
▁guest	-10.6137
▁climate	-10.6137
▁rock	-10.6138
▁street	-10.6138
▁Mountain	-10.6139
▁restaurant	-10.6156
▁prec	-10.6157
▁origin	-10.6158
▁antique	-10.6159
meter	-10.6163
▁effort	-10.6168
▁Game	-10.6168
▁intent	-10.6175
▁troop	-10.618
▁ticket	-10.618
▁pound	-10.619
▁cau	-10.619
rough	-10.6195
▁wall	-10.6206
▁Gra	-10.6207
▁hole	-10.6208
cross	-10.6209
▁State	-10.6212
hey	-10.6216
got	-10.6224
▁fin	-10.6239
▁gener	-10.6259
▁loc	-10.6259
▁voter	-10.6262
▁officer	-10.6267
▁Da	-10.6276
▁divin	-10.6297
▁comfort	-10.6301
intend	-10.6304
▁intr	-10.6317
ank	-10.6322
bble	-10.6333
accurate	-10.6339
advan	-10.6339
how	-10.6344
TV	-10.6348
solution	-10.6349
claim	-10.6354
fare	-10.6355
Christian	-10.6355
Today	-10.6355
paper	-10.6356
morphi	-10.6356
qualit	-10.6357
crowd	-10.6359
expensive	-10.6359
length	-10.636
▁bar	-10.636
wide	-10.6362
print	-10.6362
wear	-10.6363
passed	-10.6364
house	-10.6365
point	-10.6366
front	-10.6366
related	-10.6367
qui	-10.6367
return	-10.6368
style	-10.6368
J	-10.6369
video	-10.6369
bars	-10.637
establish	-10.637
tten	-10.6371
phone	-10.6371
well	-10.6375
world	-10.6375
century	-10.6376
This	-10.6376
operation	-10.6376
which	-10.6376
(	-10.6376
with	-10.6377
modern	-10.6379
water	-10.638
common	-10.6383
high	-10.6384
link	-10.639
room	-10.6394
▁AD	-10.6395
hill	-10.6399
under	-10.6401
camp	-10.6402
▁photograph	-10.6404
▁speak	-10.6405
▁adj	-10.641
from	-10.641
▁prison	-10.6412
hand	-10.6416
▁profi	-10.6422
▁cloth	-10.6424
▁Inter	-10.6425
free	-10.6427
want	-10.6428
district	-10.6432
▁atom	-10.6432
pical	-10.6433
▁publish	-10.6433
▁build	-10.6433
▁accord	-10.6434
▁participat	-10.6437
assign	-10.644
have	-10.6443
▁fail	-10.6453
▁tru	-10.6465
▁port	-10.6475
alga	-10.6476
strain	-10.6481
night	-10.6487
istrict	-10.6488
cab	-10.6492
friendl	-10.65
igh	-10.6501
▁desire	-10.6502
▁concer	-10.6506
▁enem	-10.6511
▁quick	-10.6512
▁convict	-10.6513
▁necessar	-10.6514
▁abort	-10.6515
▁societ	-10.6515
▁navigat	-10.6516
gins	-10.6518
▁excellen	-10.6518
▁Je	-10.6518
▁atmospher	-10.6522
▁sect	-10.6523
▁significan	-10.6525
▁Korea	-10.6527
▁arrive	-10.6527
▁geographic	-10.6528
antin	-10.6529
▁broke	-10.6532
SA	-10.6532
ugh	-10.6533
▁construct	-10.6537
istration	-10.6537
liz	-10.6538
▁pla	-10.6538
oka	-10.6539
▁pac	-10.6542
▁commission	-10.6544
▁explore	-10.6544
▁Minist	-10.6546
▁recommend	-10.6548
He	-10.6548
qua	-10.6548
▁interpret	-10.6549
▁profess	-10.655
▁Lak	-10.655
▁tornado	-10.6552
pher	-10.6553
▁mosquito	-10.6554
ngeti	-10.6555
▁roa	-10.6558
▁Elect	-10.6558
36	-10.6559
▁Austral	-10.656
atory	-10.6561
▁Egypt	-10.6561
gio	-10.6562
ference	-10.6563
▁civi	-10.6564
▁adopt	-10.6564
▁legislat	-10.6564
▁orig	-10.6564
ritten	-10.6565
porting	-10.6565
▁categor	-10.6565
polis	-10.6566
elevision	-10.6566
ermits	-10.6567
yramid	-10.6567
esign	-10.6567
▁priva	-10.6567
▁settle	-10.6569
riate	-10.6569
▁elect	-10.6569
▁occur	-10.657
▁Hindu	-10.657
ertise	-10.6571
▁complain	-10.6571
ckets	-10.6571
▁broad	-10.6571
itude	-10.6572
restrict	-10.6572
▁hang	-10.6572
▁sanct	-10.6572
▁neutr	-10.6572
celot	-10.6572
ighteen	-10.6572
peaker	-10.6573
▁Apollo	-10.6573
▁Jakar	-10.6573
beneficial	-10.6573
specimen	-10.6573
▁Aristotle	-10.6573
▁Colonist	-10.6573
▁Kalaall	-10.6573
▁Khufu	-10.6573
▁Krushchev	-10.6573
▁Nepal	-10.6573
▁Ovechkin	-10.6573
▁Rainbow	-10.6573
▁Shyam	-10.6573
▁Stardust	-10.6573
▁Thursday	-10.6573
▁USOC	-10.6573
▁Vietnam	-10.6573
▁autonom	-10.6573
▁controvers	-10.6573
▁distributi	-10.6573
▁eBay	-10.6573
▁engrav	-10.6573
▁exploit	-10.6573
Dutch	-10.6573
Eskimo	-10.6573
METI	-10.6573
Pittsburgh	-10.6573
RSPCA	-10.6573
Timbuktu	-10.6573
cosmonaut	-10.6573
expressions	-10.6573
oulevard	-10.6573
peciation	-10.6573
valanches	-10.6573
▁ACTA	-10.6573
▁Airport	-10.6573
▁Amsterdam	-10.6573
▁Azerbaijan	-10.6573
▁Bachmann	-10.6573
▁Basically	-10.6573
▁Bridge	-10.6573
▁CEO	-10.6573
▁Cambridge	-10.6573
▁Caribbean	-10.6573
▁Caribes	-10.6573
▁Chambers	-10.6573
▁Chandra	-10.6573
▁Croatia	-10.6573
▁Crocodile	-10.6573
▁Cruise	-10.6573
▁Cuddeback	-10.6573
▁Damadian	-10.6573
▁Denmark	-10.6573
▁Department	-10.6573
▁Devonport	-10.6573
▁Diplomat	-10.6573
▁Dynasty	-10.6573
▁Econom	-10.6573
▁Emirates	-10.6573
▁Engineer	-10.6573
▁Ephes	-10.6573
▁Fallujah	-10.6573
▁Flags	-10.6573
▁Frequent	-10.6573
▁Frontiere	-10.6573
▁Government	-10.6573
▁Governor	-10.6573
▁Herostratus	-10.6573
▁Istanbul	-10.6573
▁Jourdain	-10.6573
▁Katrina	-10.6573
▁Kyoto	-10.6573
▁Libya	-10.6573
▁Literature	-10.6573
▁Missouri	-10.6573
▁Muhammad	-10.6573
▁Musashi	-10.6573
▁NPWS	-10.6573
▁Natural	-10.6573
▁Netherlands	-10.6573
▁Nevada	-10.6573
▁Norwegian	-10.6573
▁Oregon	-10.6573
▁Pittman	-10.6573
▁Polynesia	-10.6573
▁Punjab	-10.6573
▁REM	-10.6573
▁Representative	-10.6573
▁Romanticism	-10.6573
▁Samoa	-10.6573
▁Sphinx	-10.6573
▁Springboks	-10.6573
▁Stadium	-10.6573
▁Stearns	-10.6573
▁Stewart	-10.6573
▁Treaty	-10.6573
▁Trenton	-10.6573
▁Trump	-10.6573
▁Velociraptor	-10.6573
▁Windows	-10.6573
▁Yet	-10.6573
▁ZMapp	-10.6573
▁Zambia	-10.6573
▁Zimbabwe	-10.6573
▁abattoirs	-10.6573
▁afternoon	-10.6573
▁agricultural	-10.6573
▁ancestors	-10.6573
▁caldera	-10.6573
▁capabilities	-10.6573
▁catastrophi	-10.6573
▁circumstances	-10.6573
▁collaborat	-10.6573
▁concentrate	-10.6573
▁conflict	-10.6573
▁consequence	-10.6573
▁conversation	-10.6573
▁counter	-10.6573
▁cracks	-10.6573
▁crevasses	-10.6573
▁disappoint	-10.6573
▁discount	-10.6573
▁dissemination	-10.6573
▁eggs	-10.6573
▁ejected	-10.6573
▁elderly	-10.6573
▁elephants	-10.6573
▁empower	-10.6573
▁encompass	-10.6573
▁eviction	-10.6573
▁excursion	-10.6573
▁exercise	-10.6573
▁exhausting	-10.6573
▁experiencing	-10.6573
▁explain	-10.6573
▁explanation	-10.6573
▁fencing	-10.6573
▁guarantee	-10.6573
▁hijack	-10.6573
▁hockey	-10.6573
▁horizon	-10.6573
▁illustrate	-10.6573
▁imagination	-10.6573
▁imperialism	-10.6573
▁impossible	-10.6573
▁inclinations	-10.6573
▁influenza	-10.6573
▁innovation	-10.6573
▁intelligibl	-10.6573
▁jargon	-10.6573
▁jellyfish	-10.6573
▁jungle	-10.6573
▁kayak	-10.6573
▁leopards	-10.6573
▁luminosity	-10.6573
▁meteorite	-10.6573
▁nightlife	-10.6573
▁partnership	-10.6573
▁patience	-10.6573
▁pilot	-10.6573
▁populated	-10.6573
▁proceedings	-10.6573
▁quote	-10.6573
▁radiation	-10.6573
▁rainforest	-10.6573
▁recruited	-10.6573
▁remodel	-10.6573
▁repair	-10.6573
▁revolution	-10.6573
▁sacrifice	-10.6573
▁scaffold	-10.6573
▁sexual	-10.6573
▁shrink	-10.6573
▁shuffle	-10.6573
▁substanti	-10.6573
▁summit	-10.6573
▁supplementa	-10.6573
▁suspen	-10.6573
▁symboli	-10.6573
▁thunderstorms	-10.6573
▁trespass	-10.6573
▁unavailable	-10.6573
▁unprepared	-10.6573
▁vandali	-10.6573
Mapuche	-10.6573
▁Extreme	-10.6573
▁Malays	-10.6573
▁adjustment	-10.6573
▁artificial	-10.6573
▁automate	-10.6573
▁brief	-10.6573
▁convenient	-10.6573
▁drunk	-10.6573
▁moderate	-10.6573
▁pavement	-10.6573
▁perfect	-10.6573
▁scanner	-10.6573
▁sufficient	-10.6573
ATA	-10.6573
Constitution	-10.6573
elicopter	-10.6573
nutrition	-10.6573
trigu	-10.6573
▁2013	-10.6573
▁2015	-10.6573
▁Advisor	-10.6573
▁Bobek	-10.6573
▁Church	-10.6573
▁DVD	-10.6573
▁Democra	-10.6573
▁Gordon	-10.6573
▁Hindi	-10.6573
▁Ohio	-10.6573
▁Partizan	-10.6573
▁Spring	-10.6573
▁Technolog	-10.6573
▁accomplish	-10.6573
▁account	-10.6573
▁ambiguit	-10.6573
▁amendment	-10.6573
▁association	-10.6573
▁chimp	-10.6573
▁coaches	-10.6573
▁collapse	-10.6573
▁contemp	-10.6573
▁descend	-10.6573
▁disruption	-10.6573
▁dissipat	-10.6573
▁enroll	-10.6573
▁gallons	-10.6573
▁gravity	-10.6573
▁harbor	-10.6573
▁imminent	-10.6573
▁kph	-10.6573
▁mountaineering	-10.6573
▁rachis	-10.6573
▁register	-10.6573
▁replacing	-10.6573
▁smooth	-10.6573
▁vegetables	-10.6573
diabetic	-10.6573
▁Management	-10.6573
▁Sirena	-10.6573
▁Soph	-10.6573
▁Tasmania	-10.6573
▁expand	-10.6573
▁incredibl	-10.6573
▁intact	-10.6573
▁machine	-10.6573
▁mosasaurs	-10.6573
▁promot	-10.6573
▁robbed	-10.6573
▁suburb	-10.6573
0–1	-10.6573
▁Taxi	-10.6573
▁burns	-10.6573
▁relevan	-10.6573
▁tutor	-10.6573
▁Wagon	-10.6573
▁Zayat	-10.6573
▁southwest	-10.6573
▁studio	-10.6573
▁Hebron	-10.6573
▁Olaf	-10.6573
▁Vinson	-10.6573
▁amended	-10.6573
▁evaluat	-10.6573
▁exotic	-10.6573
▁obst	-10.6573
▁ownership	-10.6573
▁predator	-10.6573
▁punish	-10.6573
▁spirit	-10.6573
▁trunk	-10.6573
▁wilderness	-10.6573
▁blend	-10.6573
▁clever	-10.6573
▁intersect	-10.6573
▁load	-10.6573
▁Arthur	-10.6573
▁Sintra	-10.6573
▁nineteen	-10.6573
▁ounce	-10.6573
▁prepare	-10.6573
▁teeth	-10.6573
▁vertical	-10.6573
▁aggressive	-10.6573
▁scho	-10.6573
ackpack	-10.6573
avour	-10.6573
spacewalk	-10.6573
▁Saito	-10.6573
▁parasit	-10.6573
▁predomina	-10.6573
▁pump	-10.6573
▁Mutation	-10.6573
▁characteristics	-10.6573
▁cub	-10.6573
▁drone	-10.6573
▁labor	-10.6573
▁margin	-10.6573
▁mirage	-10.6573
▁simulat	-10.6573
NBA	-10.6573
climat	-10.6573
▁Dominican	-10.6573
▁wagon	-10.6573
▁reject	-10.6573
Shri	-10.6573
▁Brother	-10.6573
vati	-10.6573
▁Pryce	-10.6573
▁sixteen	-10.6573
embrac	-10.6573
▁Danius	-10.6573
▁throne	-10.6573
▁Exposition	-10.6573
▁Lenz	-10.6573
▁Minne	-10.6573
▁Resistan	-10.6573
▁frame	-10.6573
▁knees	-10.6573
▁07:	-10.6573
▁Blog	-10.6573
▁crusade	-10.6573
▁desert	-10.6573
▁Livingston	-10.6573
▁inherent	-10.6573
▁snowboarding	-10.6573
▁appoint	-10.6573
▁indictment	-10.6573
▁strateg	-10.6573
▁animation	-10.6573
▁wifi	-10.6573
▁garage	-10.6573
▁Enter	-10.6573
▁skirts	-10.6573
▁hamper	-10.6573
▁Fati	-10.6573
▁Work	-10.6573
▁Galile	-10.6573
▁Namgy	-10.6573
▁abilities	-10.6573
▁delegat	-10.6573
▁outrage	-10.6573
▁possesse	-10.6573
▁slop	-10.6573
▁Miller	-10.6573
▁horr	-10.6573
▁vacati	-10.6573
▁Protest	-10.6573
▁Simi	-10.6573
▁Nigeria	-10.6573
▁branch	-10.6573
opefully	-10.6573
▁Slov	-10.6573
▁visualization	-10.6573
egotiat	-10.6573
solicit	-10.6573
▁Cell	-10.6573
▁Sahel	-10.6573
▁jaw	-10.6573
▁pig	-10.6573
▁jet	-10.6573
▁Jesus	-10.6573
▁corner	-10.6573
▁nationalised	-10.6573
1998)	-10.6573
▁broadsides	-10.6573
▁thirteen	-10.6573
▁subcontinent	-10.6573
▁selfish	-10.6573
▁inaccess	-10.6574
▁philosophical	-10.6574
▁engineering	-10.6574
▁alarm	-10.6574
ducation	-10.6574
▁cues	-10.6574
▁Saturday	-10.6574
▁detonat	-10.6574
▁editing	-10.6574
▁casual	-10.6574
▁Audi	-10.6574
▁verb	-10.6574
▁solid	-10.6574
▁clinic	-10.6574
▁appeal	-10.6574
▁Possibl	-10.6574
▁triang	-10.6574
1895	-10.6574
▁Colbert	-10.6574
phen	-10.6574
▁pilgrimage	-10.6574
▁prides	-10.6574
▁tomato	-10.6574
14.	-10.6574
▁lodging	-10.6574
▁indoor	-10.6574
▁Jeff	-10.6574
▁nurtur	-10.6574
▁Bhut	-10.6574
▁Nadal	-10.6574
▁bacterium	-10.6574
▁domestic	-10.6574
▁diabetes	-10.6574
▁spray	-10.6574
▁digit	-10.6574
ISI	-10.6574
hibit	-10.6574
ltitude	-10.6574
ucci	-10.6574
▁10:00	-10.6574
▁manner	-10.6574
▁lanes	-10.6574
xample	-10.6574
▁Airways	-10.6574
▁Komen	-10.6574
▁odor	-10.6575
▁eighteen	-10.6575
▁exert	-10.6575
▁Zagr	-10.6575
▁197	-10.6575
▁husbandry	-10.6575
▁spinning	-10.6575
▁caf	-10.6575
▁fatalit	-10.6575
▁Lead	-10.6575
▁dorm	-10.6575
▁peers	-10.6575
▁Guar	-10.6575
Angola	-10.6575
▁ocelot	-10.6575
▁harbour	-10.6575
▁loose	-10.6575
▁adventur	-10.6575
22,	-10.6575
▁1976	-10.6575
▁exci	-10.6575
▁strange	-10.6575
▁alter	-10.6575
▁iP	-10.6575
oxy	-10.6575
▁identi	-10.6575
▁Hinduism	-10.6575
▁specialization	-10.6575
▁Kiss	-10.6575
▁legend	-10.6575
▁wives	-10.6575
▁fruit	-10.6575
▁yog	-10.6575
demic	-10.6575
▁confusing	-10.6575
▁bedding	-10.6575
▁lifestyle	-10.6576
468	-10.6576
▁irritation	-10.6576
▁weekend	-10.6576
▁Edison	-10.6576
▁1977	-10.6576
▁Summ	-10.6576
▁entity	-10.6576
cinat	-10.6576
▁goodbye	-10.6576
▁Dream	-10.6576
▁Parisians	-10.6576
▁tuberculosis	-10.6576
▁Product	-10.6576
▁basketball	-10.6576
▁Mariana	-10.6576
▁rhythms	-10.6576
▁stirrup	-10.6576
▁subtropic	-10.6576
▁Viking	-10.6576
▁manipulation	-10.6577
▁minimum	-10.6577
▁monasteries	-10.6577
▁twentie	-10.6577
▁elk	-10.6577
▁merge	-10.6577
▁rocket	-10.6577
▁criticism	-10.6577
▁diagnosis	-10.6577
laps	-10.6577
transfer	-10.6577
▁Santor	-10.6577
▁Buses	-10.6577
▁stroke	-10.6577
▁Cabo	-10.6577
▁peacekeepers	-10.6577
patria	-10.6577
▁Wide	-10.6577
▁hamm	-10.6577
▁email	-10.6577
▁violat	-10.6577
phor	-10.6578
▁1945	-10.6578
▁amino	-10.6578
▁correlat	-10.6578
licens	-10.6578
root	-10.6578
irag	-10.6578
▁Sie	-10.6578
▁install	-10.6578
▁grand	-10.6578
▁breach	-10.6578
icros	-10.6578
▁shade	-10.6578
▁secretary	-10.6578
▁Ott	-10.6578
▁mini	-10.6578
mouth	-10.6578
▁1988	-10.6579
▁pale	-10.6579
▁scale	-10.6579
roadcast	-10.6579
▁Prince	-10.6579
▁underwater	-10.6579
▁model	-10.6579
renown	-10.6579
▁single	-10.6579
▁cyclone	-10.6579
▁goats	-10.6579
▁extract	-10.6579
▁distan	-10.6579
▁codifie	-10.658
▁master	-10.658
▁hint	-10.658
▁captain	-10.658
robi	-10.658
▁alien	-10.658
▁mild	-10.658
▁11:2	-10.658
▁1956	-10.658
▁existence	-10.658
▁spark	-10.6581
FT	-10.6581
▁fitness	-10.6581
▁crush	-10.6581
▁wicket	-10.6581
▁fift	-10.6581
ropolis	-10.6581
▁habitat	-10.6581
pian	-10.6581
▁perception	-10.6581
▁visual	-10.6581
▁Need	-10.6581
ubmarines	-10.6582
▁celebration	-10.6582
▁Communi	-10.6582
▁fix	-10.6582
▁(31	-10.6582
▁minim	-10.6582
▁effectiveness	-10.6582
▁hail	-10.6582
▁auth	-10.6582
▁worldwide	-10.6583
dney	-10.6583
▁Traf	-10.6583
▁reclaim	-10.6583
garia	-10.6583
▁categories	-10.6583
▁reference	-10.6583
arlier	-10.6583
▁trick	-10.6584
ruit	-10.6584
▁(15	-10.6584
▁prox	-10.6584
▁competition	-10.6584
▁Squa	-10.6584
755	-10.6584
▁semi	-10.6584
▁Square	-10.6584
▁fans	-10.6584
▁54	-10.6585
▁setup	-10.6585
▁Room	-10.6585
▁hazard	-10.6585
▁Frank	-10.6586
fortune	-10.6586
▁cherr	-10.6586
▁AU	-10.6586
eading	-10.6586
▁electricity	-10.6586
TB	-10.6587
▁Jerry	-10.6587
glass	-10.6587
▁freezing	-10.6587
▁Villa	-10.6587
▁lift	-10.6587
▁infra	-10.6587
▁revers	-10.6587
lley	-10.6587
▁gee	-10.6588
▁plain	-10.6588
▁Gaz	-10.6588
▁stamp	-10.6588
burgh	-10.6588
▁survey	-10.6588
▁impla	-10.6588
SW	-10.6589
▁belt	-10.6589
mate	-10.6589
▁barb	-10.6589
▁preserved	-10.6589
uction	-10.659
▁opportunities	-10.659
▁disability	-10.659
▁doub	-10.659
▁5,000	-10.659
▁Thom	-10.6591
▁strengthen	-10.6591
chell	-10.6591
▁Mich	-10.6591
soph	-10.6591
▁Back	-10.6591
ensive	-10.6591
ooting	-10.6591
▁shell	-10.6592
▁Astro	-10.6592
▁Comm	-10.6592
▁1989	-10.6592
▁boost	-10.6592
nthrop	-10.6592
▁finger	-10.6593
AP	-10.6593
MI	-10.6593
▁Common	-10.6594
▁tenet	-10.6594
▁Land	-10.6594
▁diet	-10.6594
▁Rio	-10.6594
44	-10.6595
▁microscope	-10.6595
▁incident	-10.6595
▁deletion	-10.6595
gregation	-10.6595
▁Tonga	-10.6595
▁Onega	-10.6595
GP	-10.6596
dley	-10.6596
▁Eri	-10.6596
stler	-10.6596
▁interpretation	-10.6596
▁Next	-10.6596
▁sheet	-10.6597
ulate	-10.6597
▁blow	-10.6597
▁Christianity	-10.6597
ulka	-10.6597
for	-10.6598
▁Shark	-10.6598
▁spin	-10.6598
▁Later	-10.6598
▁dishes	-10.6598
▁dignity	-10.6598
rchestra	-10.6599
▁Leon	-10.6601
▁600	-10.6602
▁2002	-10.6602
▁Gri	-10.6602
▁37	-10.6602
▁contrast	-10.6602
▁repl	-10.6602
▁panic	-10.6603
▁impose	-10.6603
Wales	-10.6603
itrogen	-10.6603
▁obscured	-10.6604
▁Camp	-10.6604
khar	-10.6605
▁hone	-10.6605
▁audi	-10.6606
▁premi	-10.6606
▁viable	-10.6607
ckwood	-10.6607
written	-10.6607
▁Congo	-10.6607
▁poet	-10.6608
isorder	-10.6608
▁spr	-10.6609
▁tornadoes	-10.6609
▁height	-10.6609
▁pota	-10.661
minent	-10.661
toxic	-10.661
▁worse	-10.661
▁Soon	-10.661
▁apt	-10.6611
▁primar	-10.6611
▁strip	-10.6612
▁32	-10.6612
▁innings	-10.6613
▁Range	-10.6614
▁13	-10.6614
▁gang	-10.6615
dore	-10.6615
▁2000	-10.6616
▁hierarch	-10.6617
▁Tourist	-10.6617
▁net	-10.6617
▁Cret	-10.6618
▁geographical	-10.6618
unge	-10.6618
▁contract	-10.6618
sphere	-10.6619
▁roadway	-10.6619
anium	-10.662
▁cork	-10.662
useum	-10.662
▁mainland	-10.6621
▁session	-10.6621
▁Gate	-10.6621
▁FI	-10.6621
▁Emm	-10.6621
▁Aires	-10.6621
▁dust	-10.6622
▁father	-10.6623
▁moose	-10.6624
▁fro	-10.6624
▁Ex	-10.6625
▁Late	-10.6625
gious	-10.6625
▁latter	-10.6626
▁sunk	-10.6626
-76	-10.6628
▁Town	-10.6629
02	-10.6629
▁awaken	-10.6629
▁analy	-10.663
otanic	-10.663
tification	-10.663
▁navigate	-10.6632
▁mono	-10.6632
▁succession	-10.6632
▁arteri	-10.6633
lynn	-10.6633
▁department	-10.6633
▁conviction	-10.6633
▁abortion	-10.6633
▁cite	-10.6635
▁graf	-10.6635
▁homeland	-10.6635
▁Const	-10.6636
▁churches	-10.6636
▁exam	-10.6636
▁jumping	-10.6637
▁responding	-10.6637
▁spelling	-10.6638
▁hair	-10.6638
▁Za	-10.6638
▁grave	-10.6639
▁Nov	-10.6639
▁portra	-10.6641
▁philosopher	-10.6641
▁programm	-10.6641
▁setting	-10.6641
peration	-10.6641
▁sector	-10.6643
▁(10	-10.6643
▁mandat	-10.6644
rium	-10.6644
scrap	-10.6644
lady	-10.6645
petition	-10.6645
▁emerge	-10.6645
gery	-10.6645
orts	-10.6646
Nu	-10.6646
▁grass	-10.6647
▁rab	-10.6648
▁indication	-10.6649
▁Scott	-10.665
▁apolog	-10.665
ople	-10.6651
physic	-10.6651
▁Iwa	-10.6654
▁Tama	-10.6657
▁Greece	-10.6657
▁Sup	-10.6657
▁PM	-10.6658
▁resigned	-10.6659
▁acquire	-10.6661
olous	-10.6662
▁Mil	-10.6664
judicial	-10.6665
pia	-10.6666
NSA	-10.6666
46	-10.6667
▁hundred	-10.6669
▁CEP	-10.6669
▁Alaska	-10.6669
▁Dunlap	-10.6669
▁11:00	-10.6669
▁journalist	-10.6669
authoriz	-10.667
▁stream	-10.6671
▁Miss	-10.6672
2-3	-10.6672
▁constitution	-10.6673
▁Arya	-10.6673
▁2006	-10.6674
tuition	-10.6674
▁Jew	-10.6674
▁variant	-10.6675
nch	-10.6675
▁prove	-10.6677
after	-10.6679
▁holders	-10.668
▁bul	-10.6683
▁(300	-10.6683
▁annual	-10.6684
:2	-10.6684
▁diversifi	-10.6685
▁weaken	-10.6687
pone	-10.6689
rote	-10.6691
socialization	-10.6691
▁Steve	-10.6692
▁explorer	-10.6692
▁disable	-10.6693
▁passes	-10.6694
boda	-10.6694
▁Sap	-10.6695
chte	-10.6695
ethic	-10.6696
rni	-10.6696
▁sma	-10.6697
rival	-10.67
▁Shi	-10.67
▁tw	-10.67
▁Pho	-10.67
zel	-10.6704
▁realise	-10.6704
lements	-10.6706
▁qualifie	-10.6707
toru	-10.6709
▁breathe	-10.6712
41	-10.6712
▁topic	-10.6717
▁pat	-10.6719
▁offense	-10.6719
▁Mid	-10.6721
stron	-10.6721
cca	-10.6721
▁Therefore	-10.6722
▁interrupted	-10.673
▁correctly	-10.673
▁ambitio	-10.6732
▁carefully	-10.6733
▁poor	-10.6735
ompany	-10.6736
▁Sara	-10.6737
ogi	-10.6742
▁career	-10.6742
▁Cli	-10.6742
haul	-10.6744
▁bro	-10.6745
▁anti	-10.6748
▁pole	-10.6749
▁racer	-10.6749
chron	-10.6752
▁lib	-10.6754
name	-10.6755
480	-10.6755
porn	-10.6756
▁Glo	-10.6756
▁Kow	-10.6757
▁Ear	-10.6757
▁duel	-10.6758
nki	-10.6758
▁prisoner	-10.6758
▁survive	-10.676
▁dish	-10.6768
▁Gur	-10.6773
▁bra	-10.6774
commu	-10.6775
▁Mau	-10.6781
▁Mino	-10.6784
▁magnific	-10.6785
▁originat	-10.6791
▁morph	-10.6795
▁plat	-10.68
▁Uk	-10.6803
▁traveler	-10.6806
gyal	-10.6815
▁Site	-10.6821
estu	-10.6821
▁spo	-10.6822
hika	-10.6823
▁Batt	-10.6823
▁char	-10.6824
▁div	-10.6825
▁Mit	-10.6826
▁lay	-10.6826
▁Mc	-10.6834
kg	-10.6841
ssar	-10.6844
▁consen	-10.6847
▁spect	-10.6847
▁pm	-10.6849
▁chee	-10.685
▁pron	-10.6851
uity	-10.6851
▁stopp	-10.6851
▁layer	-10.6856
NH	-10.6856
▁39	-10.6858
▁flower	-10.6859
git	-10.6864
fia	-10.6865
dru	-10.6872
▁Tro	-10.6875
ements	-10.688
▁chil	-10.6886
lingua	-10.6887
mony	-10.6892
▁Federa	-10.6894
venge	-10.6895
▁entr	-10.6909
▁Sul	-10.6909
▁apart	-10.6921
dministrat	-10.6922
ego	-10.6925
ntarctic	-10.6931
▁Bea	-10.6932
asu	-10.6942
▁Tai	-10.6942
quet	-10.6943
typic	-10.6945
▁stee	-10.6947
▁scou	-10.6951
stable	-10.6958
larly	-10.696
▁workers	-10.6963
anybody	-10.6968
▁encourag	-10.6975
76	-10.6977
rise	-10.6979
▁Rest	-10.6985
brand	-10.6989
▁seize	-10.6997
cular	-10.7003
▁ena	-10.7004
reland	-10.7006
aking	-10.7008
marsh	-10.7011
▁Ly	-10.7019
ordin	-10.7019
88	-10.7024
gne	-10.7031
▁reve	-10.7034
▁Mi	-10.7039
DT	-10.704
erto	-10.705
Gen	-10.706
▁Allen	-10.7065
iary	-10.709
▁Nag	-10.7101
Shan	-10.7111
▁tell	-10.7118
lete	-10.7118
▁arch	-10.7122
▁container	-10.7125
odern	-10.7135
boxes	-10.714
▁149	-10.7144
elimina	-10.7146
-3	-10.7179
▁advisor	-10.7189
enia	-10.7208
▁Hor	-10.7213
ishes	-10.7215
▁slid	-10.722
chest	-10.7221
▁grad	-10.7231
nde	-10.7268
▁specialize	-10.7286
▁Dep	-10.7298
iano	-10.7306
▁Ken	-10.7306
▁Ste	-10.7314
▁ranger	-10.7315
nfortunate	-10.7319
entic	-10.7321
▁historical	-10.7325
▁rol	-10.7347
▁creativ	-10.7366
▁rif	-10.7374
ypothe	-10.7377
▁separat	-10.7399
onstruction	-10.7403
ahs	-10.7414
vice	-10.7428
cock	-10.7442
153	-10.747
▁supervis	-10.749
▁Eth	-10.7515
dependent	-10.7521
poses	-10.7547
osses	-10.757
gular	-10.7579
amid	-10.7582
▁flyer	-10.7623
▁observer	-10.764
▁shou	-10.765
▁Rog	-10.7662
▁assu	-10.7717
▁amb	-10.7727
▁terrori	-10.7731
▁Pan	-10.7741
▁Est	-10.7817
toria	-10.784
aris	-10.7843
▁structur	-10.7854
▁diagnos	-10.7893
▁propert	-10.795
FA	-10.7968
▁transform	-10.8007
cognition	-10.8012
▁catch	-10.8052
profit	-10.8054
▁seale	-10.8062
▁Ur	-10.8087
Gold	-10.8118
▁learner	-10.8155
cella	-10.8231
olonia	-10.8242
1000	-10.8255
cursor	-10.8343
PN	-10.8395
quator	-10.8432
Tra	-10.847
iction	-10.8484
1,000	-10.8558
Gore	-10.8571
llo	-10.8574
▁Pale	-10.8591
cher	-10.8624
reserved	-10.8682
cela	-10.8688
oya	-10.8695
▁appro	-10.8756
▁Bor	-10.88
▁devot	-10.8835
▁classic	-10.8879
▁admir	-10.891
rman	-10.8927
▁Shor	-10.9124
ears	-10.9144
▁caro	-10.9198
flat	-10.9228
II	-10.9235
89	-10.9238
andidate	-10.9276
Romani	-10.934
uthorities	-10.9427
▁fab	-10.9452
▁curren	-10.9462
▁49	-10.9574
▁Provi	-10.9574
▁Alex	-10.9601
▁achiev	-10.9927
▁brea	-10.9927
▁instru	-11.0038
cie	-11.0086
▁milit	-11.0107
▁priorit	-11.0134
gained	-11.021
zen	-11.0226
▁dat	-11.0241
▁Pol	-11.0251
roller	-11.0303
▁trai	-11.0434
nnels	-11.0436
▁Bab	-11.0501
▁riches	-11.0512
eighborhood	-11.0633
illion	-11.071
creased	-11.087
▁Com	-11.1015
employed	-11.1181
▁Fir	-11.1201
rainy	-11.121
rot	-11.1228
▁initiati	-11.1303
hotons	-11.1328
▁Authorit	-11.1355
16	-11.1597
ealth	-11.1604
believer	-11.1682
▁pursu	-11.1829
▁Bibl	-11.1894
▁sevent	-11.2172
fense	-11.2299
▁devo	-11.2324
uilt	-11.2374
esper	-11.2573
minate	-11.27
cute	-11.2744
▁biologi	-11.2842
▁equ	-11.2885
continuing	-11.2925
cript	-11.3004
activate	-11.3133
93	-11.3253
980	-11.3321
▁expo	-11.3336
SU	-11.3339
atchers	-11.3566
▁recogni	-11.3581
sports	-11.3687
▁import	-11.3725
agnostic	-11.3783
ficient	-11.3832
▁lov	-11.3899
lateral	-11.4003
position	-11.402
▁techn	-11.4069
▁plea	-11.4115
Boat	-11.4129
▁whil	-11.417
850	-11.4238
▁commit	-11.4282
lonia	-11.4302
zones	-11.436
neighbors	-11.4414
pati	-11.4439
struction	-11.4523
metre	-11.4528
21.	-11.4532
▁Buddh	-11.4603
anni	-11.4641
orporat	-11.4695
esembl	-11.4695
92	-11.482
fortunate	-11.4874
ertili	-11.4875
duced	-11.4988
boats	-11.5046
titles	-11.5135
Trib	-11.5191
U	-11.5241
earful	-11.5534
ification	-11.5568
federa	-11.5761
67	-11.5828
covered	-11.5849
Q	-12.9635
Y	-12.9636
q	-12.9637
